{
  "version": "1.0",
  "truncation": null,
  "padding": null,
  "added_tokens": [
    {
      "id": 0,
      "content": "<pad>",
      "single_word": false,
      "lstrip": false,
      "rstrip": false,
      "normalized": false,
      "special": true
    },
    {
      "id": 1,
      "content": "<sos>",
      "single_word": false,
      "lstrip": false,
      "rstrip": false,
      "normalized": false,
      "special": true
    },
    {
      "id": 2,
      "content": "<eos>",
      "single_word": false,
      "lstrip": false,
      "rstrip": false,
      "normalized": false,
      "special": true
    },
    {
      "id": 3,
      "content": "<unk>",
      "single_word": false,
      "lstrip": false,
      "rstrip": false,
      "normalized": false,
      "special": true
    }
  ],
  "normalizer": null,
  "pre_tokenizer": {
    "type": "Whitespace"
  },
  "post_processor": null,
  "decoder": null,
  "model": {
    "type": "BPE",
    "dropout": null,
    "unk_token": null,
    "continuing_subword_prefix": null,
    "end_of_word_suffix": null,
    "fuse_unk": false,
    "byte_fallback": false,
    "ignore_merges": false,
    "vocab": {
      "<pad>": 0,
      "<sos>": 1,
      "<eos>": 2,
      "<unk>": 3,
      "!": 4,
      "\"": 5,
      "#": 6,
      "$": 7,
      "%": 8,
      "&": 9,
      "'": 10,
      "(": 11,
      ")": 12,
      "*": 13,
      "+": 14,
      ",": 15,
      "-": 16,
      ".": 17,
      "/": 18,
      "0": 19,
      "1": 20,
      "2": 21,
      "3": 22,
      "4": 23,
      "5": 24,
      "6": 25,
      "7": 26,
      "8": 27,
      "9": 28,
      ":": 29,
      ";": 30,
      "<": 31,
      "=": 32,
      ">": 33,
      "?": 34,
      "@": 35,
      "A": 36,
      "B": 37,
      "C": 38,
      "D": 39,
      "E": 40,
      "F": 41,
      "G": 42,
      "H": 43,
      "I": 44,
      "J": 45,
      "K": 46,
      "L": 47,
      "M": 48,
      "N": 49,
      "O": 50,
      "P": 51,
      "Q": 52,
      "R": 53,
      "S": 54,
      "T": 55,
      "U": 56,
      "V": 57,
      "W": 58,
      "X": 59,
      "Y": 60,
      "Z": 61,
      "[": 62,
      "\\": 63,
      "]": 64,
      "^": 65,
      "_": 66,
      "`": 67,
      "a": 68,
      "b": 69,
      "c": 70,
      "d": 71,
      "e": 72,
      "f": 73,
      "g": 74,
      "h": 75,
      "i": 76,
      "j": 77,
      "k": 78,
      "l": 79,
      "m": 80,
      "n": 81,
      "o": 82,
      "p": 83,
      "q": 84,
      "r": 85,
      "s": 86,
      "t": 87,
      "u": 88,
      "v": 89,
      "w": 90,
      "x": 91,
      "y": 92,
      "z": 93,
      "{": 94,
      "|": 95,
      "}": 96,
      "~": 97,
      "è": 98,
      "in": 99,
      "int": 100,
      "re": 101,
      "an": 102,
      "if": 103,
      "to": 104,
      "se": 105,
      "en": 106,
      "or": 107,
      "on": 108,
      "<<": 109,
      "le": 110,
      "for": 111,
      "th": 112,
      "er": 113,
      "ong": 114,
      "rea": 115,
      "long": 116,
      "is": 117,
      "ou": 118,
      ">>": 119,
      "si": 120,
      "ar": 121,
      "st": 122,
      "cou": 123,
      "++": 124,
      "pr": 125,
      "and": 126,
      "lse": 127,
      "print": 128,
      "ma": 129,
      "eg": 130,
      "cl": 131,
      "else": 132,
      "integ": 133,
      "integer": 134,
      "cout": 135,
      "read": 136,
      "um": 137,
      "ve": 138,
      "00": 139,
      "()": 140,
      "ans": 141,
      "ur": 142,
      "al": 143,
      "cin": 144,
      "of": 145,
      "end": 146,
      "==": 147,
      "ret": 148,
      "urn": 149,
      "return": 150,
      "let": 151,
      "ent": 152,
      "++)": 153,
      "endl": 154,
      "clu": 155,
      "sive": 156,
      "clusive": 157,
      "set": 158,
      "ing": 159,
      "ment": 160,
      "str": 161,
      "de": 162,
      "wi": 163,
      "arr": 164,
      "with": 165,
      "][": 166,
      "nt": 167,
      "cre": 168,
      ");": 169,
      "crement": 170,
      "ex": 171,
      "];": 172,
      "ch": 173,
      "sum": 174,
      "main": 175,
      "ue": 176,
      "exclusive": 177,
      "ne": 178,
      "new": 179,
      "hi": 180,
      "ze": 181,
      "increment": 182,
      "size": 183,
      "string": 184,
      "lo": 185,
      "whi": 186,
      "ine": 187,
      "--": 188,
      "while": 189,
      "qu": 190,
      "max": 191,
      "qual": 192,
      "equal": 193,
      "line": 194,
      "the": 195,
      "are": 196,
      "mp": 197,
      "10": 198,
      "than": 199,
      "<=": 200,
      "by": 201,
      "ter": 202,
      "++;": 203,
      "decl": 204,
      "declare": 205,
      "ay": 206,
      "te": 207,
      "min": 208,
      "ro": 209,
      "con": 210,
      "len": 211,
      "integers": 212,
      "cnt": 213,
      "val": 214,
      "ol": 215,
      "array": 216,
      "pu": 217,
      "ab": 218,
      "100": 219,
      "+=": 220,
      "rom": 221,
      "be": 222,
      "from": 223,
      "res": 224,
      "ti": 225,
      "value": 226,
      "la": 227,
      "tr": 228,
      "char": 229,
      "&&": 230,
      "..": 231,
      "num": 232,
      "])": 233,
      "op": 234,
      "mo": 235,
      "ss": 236,
      "newline": 237,
      "count": 238,
      "\";": 239,
      "no": 240,
      "as": 241,
      "ac": 242,
      "inclusive": 243,
      "me": 244,
      "put": 245,
      "fla": 246,
      "loop": 247,
      "#.": 248,
      "flag": 249,
      "grea": 250,
      "greater": 251,
      "true": 252,
      "reak": 253,
      "break": 254,
      "un": 255,
      "ge": 256,
      "leng": 257,
      "length": 258,
      "],": 259,
      "mod": 260,
      "')": 261,
      "temp": 262,
      "less": 263,
      "!=": 264,
      "const": 265,
      "NO": 266,
      "#.#.": 267,
      "bo": 268,
      "fa": 269,
      "s1": 270,
      "tion": 271,
      "not": 272,
      "();": 273,
      "ES": 274,
      "id": 275,
      "YES": 276,
      "it": 277,
      "po": 278,
      "vec": 279,
      "abs": 280,
      "at": 281,
      "tor": 282,
      "crea": 283,
      "ad": 284,
      "----": 285,
      "decrement": 286,
      "s2": 287,
      ">=": 288,
      "crease": 289,
      "then": 290,
      "input": 291,
      "0000": 292,
      "able": 293,
      "false": 294,
      "fun": 295,
      "sh": 296,
      "var": 297,
      "ction": 298,
      "ele": 299,
      "sig": 300,
      "function": 301,
      "vari": 302,
      "variable": 303,
      "....": 304,
      "vector": 305,
      "do": 306,
      "((": 307,
      "element": 308,
      "';": 309,
      "))": 310,
      "ul": 311,
      "sor": 312,
      "arg": 313,
      "sign": 314,
      "dp": 315,
      "ir": 316,
      "low": 317,
      "\"\\": 318,
      "ange": 319,
      "increase": 320,
      "ument": 321,
      "argument": 322,
      "add": 323,
      "||": 324,
      "assign": 325,
      "ap": 326,
      "change": 327,
      "sort": 328,
      "bool": 329,
      "1e": 330,
      "acter": 331,
      "ck": 332,
      "character": 333,
      "tmp": 334,
      "modu": 335,
      "modulo": 336,
      "3f": 337,
      "x1": 338,
      "cd": 339,
      "push": 340,
      "co": 341,
      "ce": 342,
      "cont": 343,
      "ult": 344,
      "99": 345,
      "out": 346,
      "gcd": 347,
      "'\\": 348,
      "ke": 349,
      "cur": 350,
      "cal": 351,
      "maxn": 352,
      "im": 353,
      "one": 354,
      "IN": 355,
      "mx": 356,
      "--;": 357,
      "result": 358,
      "--)": 359,
      "ime": 360,
      "fol": 361,
      "follow": 362,
      "ack": 363,
      "following": 364,
      "ed": 365,
      "tot": 366,
      "irst": 367,
      "get": 368,
      "\",": 369,
      "x2": 370,
      "ta": 371,
      "10000": 372,
      "ant": 373,
      "ser": 374,
      "vo": 375,
      "su": 376,
      "star": 377,
      "back": 378,
      "t1": 379,
      "MA": 380,
      "#.#.#.#.": 381,
      "vis": 382,
      "MAX": 383,
      "di": 384,
      "pos": 385,
      "3f3f": 386,
      "first": 387,
      "start": 388,
      "]);": 389,
      "che": 390,
      "--------": 391,
      "-=": 392,
      "elements": 393,
      "beg": 394,
      "begin": 395,
      "mn": 396,
      "constant": 397,
      "ints": 398,
      "c1": 399,
      "arguments": 400,
      "into": 401,
      "map": 402,
      "1000": 403,
      "output": 404,
      "ind": 405,
      "cond": 406,
      "ard": 407,
      "imum": 408,
      "y1": 409,
      "void": 410,
      "pre": 411,
      "ame": 412,
      "_back": 413,
      "t2": 414,
      "push_back": 415,
      "]]": 416,
      "',": 417,
      "1000000": 418,
      "inue": 419,
      "OO": 420,
      "continue": 421,
      "boo": 422,
      "y2": 423,
      "),": 424,
      "prime": 425,
      "........": 426,
      "gh": 427,
      "mid": 428,
      "check": 429,
      "incrementing": 430,
      "il": 431,
      "ri": 432,
      "inde": 433,
      "sub": 434,
      "second": 435,
      "105": 436,
      "));": 437,
      "ble": 438,
      "inser": 439,
      "c2": 440,
      "\")": 441,
      "insert": 442,
      "strings": 443,
      "20": 444,
      "1e9": 445,
      "index": 446,
      "now": 447,
      "(),": 448,
      "].": 449,
      "top": 450,
      "dis": 451,
      "v1": 452,
      "boole": 453,
      "equals": 454,
      "total": 455,
      "returning": 456,
      "name": 457,
      "dou": 458,
      "double": 459,
      "sum1": 460,
      "time": 461,
      "(!": 462,
      "sol": 463,
      "run": 464,
      "dif": 465,
      "iter": 466,
      "longs": 467,
      "make": 468,
      "boolean": 469,
      "values": 470,
      ".|": 471,
      "ven": 472,
      "ute": 473,
      "ther": 474,
      "es": 475,
      "ok": 476,
      "};": 477,
      "ca": 478,
      "\"|": 479,
      "100000000": 480,
      "]++;": 481,
      "p1": 482,
      "variables": 483,
      "col": 484,
      "absol": 485,
      "led": 486,
      "absolute": 487,
      "11": 488,
      "pa": 489,
      "stand": 490,
      "standard": 491,
      "wer": 492,
      "ct": 493,
      "sum2": 494,
      "last": 495,
      "a1": 496,
      "call": 497,
      "ber": 498,
      "pl": 499,
      "60": 500,
      "MO": 501,
      "MOD": 502,
      "INF": 503,
      "itera": 504,
      "solve": 505,
      "n1": 506,
      "wise": 507,
      "sizeof": 508,
      "decrease": 509,
      "sw": 510,
      "row": 511,
      "12": 512,
      "move": 513,
      "diff": 514,
      "26": 515,
      "od": 516,
      "101": 517,
      "maxx": 518,
      "that": 519,
      "ha": 520,
      "/=": 521,
      "200": 522,
      "up": 523,
      "find": 524,
      "even": 525,
      "ep": 526,
      "50": 527,
      "swap": 528,
      "vi": 529,
      "']": 530,
      "ght": 531,
      "n2": 532,
      "us": 533,
      "());": 534,
      "ty": 535,
      "p2": 536,
      "ase": 537,
      "called": 538,
      "sp": 539,
      "pend": 540,
      "minimum": 541,
      "inf": 542,
      "ere": 543,
      "bit": 544,
      "def": 545,
      "mem": 546,
      "ft": 547,
      "maximum": 548,
      "9999": 549,
      "ice": 550,
      "number": 551,
      "())": 552,
      "counter": 553,
      "ver": 554,
      "INT": 555,
      "memset": 556,
      "append": 557,
      "define": 558,
      "ord": 559,
      "100000": 560,
      "30": 561,
      "my": 562,
      "ite": 563,
      "(\"": 564,
      "tw": 565,
      "a2": 566,
      "arrays": 567,
      "15": 568,
      "go": 569,
      "all": 570,
      "\"#": 571,
      "left": 572,
      "----------------": 573,
      "ans1": 574,
      "LL": 575,
      "2d": 576,
      "fs": 577,
      "nd": 578,
      "1000000007": 579,
      "returns": 580,
      "stop": 581,
      "xx": 582,
      "v0": 583,
      "el": 584,
      "s3": 585,
      "minn": 586,
      "\");": 587,
      "0x": 588,
      "['": 589,
      "mar": 590,
      "user": 591,
      "ans2": 592,
      "|.|": 593,
      "maxi": 594,
      "MAXN": 595,
      "right": 596,
      "cost": 597,
      "mi": 598,
      "getchar": 599,
      "os": 600,
      "other": 601,
      "3f3f3f3f": 602,
      "odd": 603,
      "mark": 604,
      "inter": 605,
      "ext": 606,
      "ff": 607,
      "LE": 608,
      "characters": 609,
      "Ma": 610,
      "v2": 611,
      "win": 612,
      "110": 613,
      "1005": 614,
      "dfs": 615,
      "act": 616,
      "pair": 617,
      "prev": 618,
      "au": 619,
      "step": 620,
      "dist": 621,
      "\"-": 622,
      "ea": 623,
      "otherwise": 624,
      "day": 625,
      "mini": 626,
      "decrementing": 627,
      "0x3f3f3f3f": 628,
      "tak": 629,
      "INT_": 630,
      "mul": 631,
      "b1": 632,
      "emp": 633,
      ".#.#.#.#.": 634,
      "divi": 635,
      "ron": 636,
      "per": 637,
      "18": 638,
      "divide": 639,
      "next": 640,
      "31": 641,
      "1e5": 642,
      "answer": 643,
      "Yes": 644,
      "que": 645,
      "max_": 646,
      "times": 647,
      "fi": 648,
      "ow": 649,
      "tes": 650,
      "ara": 651,
      "taking": 652,
      "strlen": 653,
      "ned": 654,
      "dat": 655,
      "mm": 656,
      "'.": 657,
      "ount": 658,
      "20000": 659,
      "'#": 660,
      "100005": 661,
      "subtr": 662,
      "puts": 663,
      "signed": 664,
      "ace": 665,
      "iteration": 666,
      "ini": 667,
      "lower": 668,
      "word": 669,
      "pow": 670,
      "d1": 671,
      "No": 672,
      "min_": 673,
      "posi": 674,
      "idx": 675,
      "*=": 676,
      "64": 677,
      "dig": 678,
      "aa": 679,
      "am": 680,
      "pointer": 681,
      "cis": 682,
      "test": 683,
      "ize": 684,
      "pe": 685,
      "INT_MAX": 686,
      "'*": 687,
      ")\"": 688,
      "ate": 689,
      "ound": 690,
      "take": 691,
      "ii": 692,
      "cc": 693,
      "each": 694,
      "_t": 695,
      "cle": 696,
      "tt": 697,
      "mat": 698,
      "np": 699,
      "cnt1": 700,
      "max1": 701,
      "empty": 702,
      "Max": 703,
      "remove": 704,
      "ll": 705,
      "Se": 706,
      "aux": 707,
      "\"+": 708,
      "dy": 709,
      "multi": 710,
      "f1": 711,
      "qr": 712,
      "'-": 713,
      "RI": 714,
      "k1": 715,
      "inline": 716,
      "]))": 717,
      "subtract": 718,
      "curr": 719,
      "substr": 720,
      "d2": 721,
      "rr": 722,
      "rem": 723,
      "nl": 724,
      "unsigned": 725,
      "sa": 726,
      "ero": 727,
      "erase": 728,
      "cast": 729,
      "rest": 730,
      "pro": 731,
      "exit": 732,
      "getline": 733,
      "two": 734,
      "Num": 735,
      "ya": 736,
      "num1": 737,
      "base": 738,
      "ts": 739,
      "bi": 740,
      "price": 741,
      "riend": 742,
      "initi": 743,
      "1001": 744,
      "ud": 745,
      "initial": 746,
      "ka": 747,
      "str1": 748,
      "verse": 749,
      "riends": 750,
      "dx": 751,
      "wn": 752,
      "differe": 753,
      "zero": 754,
      "str2": 755,
      "%=": 756,
      "55": 757,
      "Count": 758,
      "gr": 759,
      "ps": 760,
      "wh": 761,
      "play": 762,
      "Time": 763,
      "An": 764,
      "rent": 765,
      "cnt2": 766,
      "current": 767,
      "24": 768,
      "takes": 769,
      "l1": 770,
      "#.|.|": 771,
      "moves": 772,
      "bitwise": 773,
      "p3": 774,
      "digit": 775,
      "ms": 776,
      "--------+": 777,
      "------------------------+": 778,
      "clear": 779,
      "\"+------------------------+": 780,
      "reverse": 781,
      "num2": 782,
      "flag1": 783,
      "down": 784,
      "\"*": 785,
      "f2": 786,
      "tru": 787,
      "initialize": 788,
      "truth": 789,
      "48": 790,
      "......": 791,
      "..............": 792,
      "comp": 793,
      "\".": 794,
      "Friends": 795,
      "In": 796,
      "cmp": 797,
      "hip": 798,
      "......................": 799,
      "Friendship": 800,
      "fin": 801,
      "letter": 802,
      "2e": 803,
      "ang": 804,
      "truthy": 805,
      ".......................|": 806,
      "l2": 807,
      "position": 808,
      "li": 809,
      "[\"": 810,
      "hed": 811,
      "man": 812,
      "sco": 813,
      "b2": 814,
      "k2": 815,
      "sy": 816,
      "een": 817,
      "betw": 818,
      "ity": 819,
      "'-')": 820,
      "different": 821,
      "between": 822,
      "fre": 823,
      "hedron": 824,
      "500": 825,
      "a3": 826,
      "35": 827,
      "1LL": 828,
      "IM": 829,
      "_gcd": 830,
      "both": 831,
      "\"*\";": 832,
      "22": 833,
      "reading": 834,
      "m1": 835,
      "ist": 836,
      "ish": 837,
      "score": 838,
      "sto": 839,
      "casted": 840,
      "can": 841,
      "orre": 842,
      "\"+------------------------+\"": 843,
      "('": 844,
      "pq": 845,
      "rock": 846,
      "fil": 847,
      "where": 848,
      "ic": 849,
      "space": 850,
      "\"]": 851,
      "SE": 852,
      "bytes": 853,
      "iterator": 854,
      "upper": 855,
      "orrect": 856,
      "25": 857,
      "[]": 858,
      "kol": 859,
      "Pr": 860,
      "has": 861,
      "scis": 862,
      "sors": 863,
      "scissors": 864,
      "++,": 865,
      "count1": 866,
      "temp1": 867,
      "ple": 868,
      "pap": 869,
      "paper": 870,
      "');": 871,
      "pop": 872,
      "vel": 873,
      "color": 874,
      "initialized": 875,
      "Ch": 876,
      "power": 877,
      "ceil": 878,
      "360": 879,
      "fl": 880,
      "tx": 881,
      "temp2": 882,
      "father": 883,
      "NG": 884,
      "ba": 885,
      "oy": 886,
      "m2": 887,
      "fast": 888,
      "cm": 889,
      "'+": 890,
      "r1": 891,
      "Prime": 892,
      "tb": 893,
      "\"\";": 894,
      "fb": 895,
      "\"#\";": 896,
      "ning": 897,
      "min1": 898,
      "beginning": 899,
      "ra": 900,
      "flag2": 901,
      "EN": 902,
      "GM": 903,
      "r2": 904,
      "ream": 905,
      "180": 906,
      "SEGM": 907,
      "ENT": 908,
      "SEGMENT": 909,
      "32": 910,
      "h1": 911,
      "_b": 912,
      "sx": 913,
      "cap": 914,
      "ot": 915,
      "div": 916,
      "shif": 917,
      "::": 918,
      "x3": 919,
      "\"#\"": 920,
      "found": 921,
      "sqr": 922,
      "zz": 923,
      "OOOO": 924,
      "data": 925,
      ")]": 926,
      "Min": 927,
      "__gcd": 928,
      "sk": 929,
      "red": 930,
      "edge": 931,
      "substring": 932,
      "bb": 933,
      "pi": 934,
      "arr2": 935,
      "adj": 936,
      "chest": 937,
      "et": 938,
      "100001": 939,
      "stream": 940,
      "quare": 941,
      "97": 942,
      "'+')": 943,
      "yy": 944,
      "board": 945,
      "#.#.#.#.#.#.": 946,
      "'*')": 947,
      "high": 948,
      "Second": 949,
      "PI": 950,
      "square": 951,
      "},": 952,
      "sqrt": 953,
      "First": 954,
      "ik": 955,
      "inp": 956,
      "acos": 957,
      "cek": 958,
      "best": 959,
      "Col": 960,
      "ited": 961,
      "queue": 962,
      "shift": 963,
      "aj": 964,
      "ci": 965,
      "which": 966,
      "flo": 967,
      "ers": 968,
      "primes": 969,
      "250": 970,
      "1010": 971,
      "bl": 972,
      "fix": 973,
      "OW": 974,
      "he": 975,
      "ANG": 976,
      "TRI": 977,
      "mal": 978,
      "arr1": 979,
      "ANGLE": 980,
      "TRIANGLE": 981,
      "bice": 982,
      "biceps": 983,
      "bu": 984,
      "c_": 985,
      "ho": 986,
      "par": 987,
      "\"\"": 988,
      "14": 989,
      "bs": 990,
      "!\"": 991,
      "DOW": 992,
      "UP": 993,
      "remain": 994,
      "DOWN": 995,
      "jj": 996,
      "vv": 997,
      "ree": 998,
      "_a": 999,
      "sz": 1000,
      "(((": 1001,
      "Of": 1002,
      "SI": 1003,
      "|)\"": 1004,
      "need": 1005,
      "(-": 1006,
      "MIN": 1007,
      "]--;": 1008,
      "cp": 1009,
      "ion": 1010,
      "rat": 1011,
      "isprime": 1012,
      "dep": 1013,
      "tri": 1014,
      ".......................|\"": 1015,
      "jum": 1016,
      "sed": 1017,
      "1e6": 1018,
      "300": 1019,
      "ls": 1020,
      "level": 1021,
      "is_": 1022,
      "PR": 1023,
      "nn": 1024,
      "OOO": 1025,
      "display": 1026,
      "jud": 1027,
      "pri": 1028,
      "plus": 1029,
      "Number": 1030,
      "PRINT": 1031,
      "Arr": 1032,
      "asha": 1033,
      "key": 1034,
      "multipl": 1035,
      ")(": 1036,
      "suma": 1037,
      "ishka": 1038,
      "dim": 1039,
      "'.'": 1040,
      "i2": 1041,
      "kk": 1042,
      "valid": 1043,
      "show": 1044,
      "13": 1045,
      "isPrime": 1046,
      "pass": 1047,
      "ith": 1048,
      "lcm": 1049,
      "i1": 1050,
      "ris": 1051,
      "sm": 1052,
      "]),": 1053,
      "item": 1054,
      "++]": 1055,
      "visited": 1056,
      "fron": 1057,
      "judge": 1058,
      "front": 1059,
      "BLE": 1060,
      "OS": 1061,
      "POS": 1062,
      "IMPOS": 1063,
      "SIBLE": 1064,
      "IMPOSSIBLE": 1065,
      "u1": 1066,
      "u2": 1067,
      "open": 1068,
      "':": 1069,
      "LD": 1070,
      "men": 1071,
      "wo": 1072,
      "root": 1073,
      "'#'": 1074,
      "Re": 1075,
      "h2": 1076,
      "dem": 1077,
      "64_t": 1078,
      "\".\";": 1079,
      "(;": 1080,
      "ai": 1081,
      "int64_t": 1082,
      "iterate": 1083,
      "joy": 1084,
      "sb": 1085,
      "Dan": 1086,
      "ban": 1087,
      "cr": 1088,
      "gap": 1089,
      "init": 1090,
      "points": 1091,
      "freq": 1092,
      "uni": 1093,
      "big": 1094,
      "store": 1095,
      "dir": 1096,
      "uck": 1097,
      "state": 1098,
      "float": 1099,
      "Pos": 1100,
      "used": 1101,
      "txt": 1102,
      "cy": 1103,
      "oo": 1104,
      "multiple": 1105,
      "Po": 1106,
      "TE": 1107,
      "filled": 1108,
      "'?": 1109,
      "FT": 1110,
      "GH": 1111,
      "table": 1112,
      "ton": 1113,
      "med": 1114,
      "ada": 1115,
      "order": 1116,
      "LEFT": 1117,
      "RIGH": 1118,
      "RIGHT": 1119,
      "51": 1120,
      "Correct": 1121,
      "b3": 1122,
      "pts": 1123,
      "|=": 1124,
      "std": 1125,
      "size_t": 1126,
      "PS": 1127,
      "fabs": 1128,
      "ip": 1129,
      "minx": 1130,
      "distan": 1131,
      "grid": 1132,
      "count2": 1133,
      "book": 1134,
      "myset": 1135,
      "multiply": 1136,
      "lim": 1137,
      "rs": 1138,
      "way": 1139,
      "alp": 1140,
      "]]++;": 1141,
      "2000": 1142,
      "ny": 1143,
      "isn": 1144,
      "head": 1145,
      "hel": 1146,
      "acce": 1147,
      "99999999": 1148,
      "'#';": 1149,
      ".\"": 1150,
      "rec": 1151,
      "uel": 1152,
      "unique": 1153,
      "EPS": 1154,
      "pal": 1155,
      "isha": 1156,
      "#.|": 1157,
      "->": 1158,
      "-|": 1159,
      "[(": 1160,
      "der": 1161,
      "hab": 1162,
      "rou": 1163,
      "ori": 1164,
      "res1": 1165,
      "asd": 1166,
      "_n": 1167,
      "tc": 1168,
      "coun": 1169,
      "lol": 1170,
      "tmp2": 1171,
      "days": 1172,
      "200005": 1173,
      "fur": 1174,
      "rows": 1175,
      "further": 1176,
      "AM": 1177,
      "#.#.#.#.#.#.#.#.#.#.": 1178,
      "match": 1179,
      "blue": 1180,
      "TEAM": 1181,
      ">::": 1182,
      "WIN": 1183,
      "ref": 1184,
      "sec": 1185,
      "tem": 1186,
      "min2": 1187,
      "tive": 1188,
      "counts": 1189,
      "WINS": 1190,
      "af": 1191,
      "mon": 1192,
      "nce": 1193,
      "s4": 1194,
      "ut": 1195,
      "log": 1196,
      "100010": 1197,
      "Color": 1198,
      "accepts": 1199,
      "fuel": 1200,
      "tab": 1201,
      "umn": 1202,
      "tra": 1203,
      "asya": 1204,
      "precis": 1205,
      "case": 1206,
      "precision": 1207,
      "ec": 1208,
      "gu": 1209,
      "visit": 1210,
      "type": 1211,
      ".#.#.": 1212,
      "435": 1213,
      "824": 1214,
      "c3": 1215,
      "hm": 1216,
      "ie": 1217,
      "pp": 1218,
      "{}": 1219,
      "ort": 1220,
      "clo": 1221,
      "99824": 1222,
      ".#.#.#.#.#.#.": 1223,
      ".#.#.#.#.#.#.#.#.": 1224,
      "edges": 1225,
      "4353": 1226,
      "998244353": 1227,
      "'(": 1228,
      "Sum": 1229,
      "_x": 1230,
      "cn": 1231,
      "tp": 1232,
      "ted": 1233,
      "resp": 1234,
      "ild": 1235,
      "Ak": 1236,
      "hh": 1237,
      "reen": 1238,
      "sion": 1239,
      "exp": 1240,
      "point": 1241,
      "shat": 1242,
      "\".\"": 1243,
      "Akshat": 1244,
      "'('": 1245,
      "mag": 1246,
      ";;": 1247,
      "list": 1248,
      "nums": 1249,
      "divis": 1250,
      "1000000000": 1251,
      "oud": 1252,
      "child": 1253,
      "num_": 1254,
      "2e9": 1255,
      "Ehab": 1256,
      "Mal": 1257,
      "Mishka": 1258,
      "dd": 1259,
      "tar": 1260,
      "ension": 1261,
      "1000000009": 1262,
      "vika": 1263,
      "bitshift": 1264,
      "Mahm": 1265,
      "'*';": 1266,
      "Chris": 1267,
      "remainder": 1268,
      "dimension": 1269,
      "woman": 1270,
      "Malvika": 1271,
      "Mahmoud": 1272,
      "S1": 1273,
      "tim": 1274,
      "chars": 1275,
      "gets": 1276,
      "fathercnt": 1277,
      "magic": 1278,
      "BW": 1279,
      "^^": 1280,
      "ner": 1281,
      "!^^": 1282,
      "120": 1283,
      "27": 1284,
      "na": 1285,
      "--,": 1286,
      "starting": 1287,
      "Power": 1288,
      "ei": 1289,
      "rl": 1290,
      "|)": 1291,
      "stat": 1292,
      "off": 1293,
      "sum3": 1294,
      "tain": 1295,
      "201": 1296,
      "eps": 1297,
      "captain": 1298,
      "ER": 1299,
      "Le": 1300,
      "RU": 1301,
      "correct": 1302,
      "isa": 1303,
      "2e5": 1304,
      "fill": 1305,
      "hash": 1306,
      "cup": 1307,
      "gg": 1308,
      "lice": 1309,
      "ung": 1310,
      "200000": 1311,
      "skip": 1312,
      "'(')": 1313,
      "_y": 1314,
      "mult": 1315,
      "{\"": 1316,
      "endline": 1317,
      "minus": 1318,
      "'.')": 1319,
      "UR": 1320,
      "matri": 1321,
      "102": 1322,
      "infin": 1323,
      "items": 1324,
      "Ans": 1325,
      "home": 1326,
      "sie": 1327,
      "lock": 1328,
      "decremented": 1329,
      "1e18": 1330,
      "column": 1331,
      "oul": 1332,
      "tate": 1333,
      "1000005": 1334,
      "'.';": 1335,
      "\"?": 1336,
      "IT": 1337,
      "Sp": 1338,
      "s_": 1339,
      "comm": 1340,
      "using": 1341,
      "LU": 1342,
      "RD": 1343,
      "T1": 1344,
      "game": 1345,
      "green": 1346,
      "nor": 1347,
      "wor": 1348,
      "reg": 1349,
      "pos1": 1350,
      "2005": 1351,
      "mymap": 1352,
      "good": 1353,
      "Anton": 1354,
      "ain": 1355,
      "dr": 1356,
      "sing": 1357,
      "ous": 1358,
      ">>=": 1359,
      "sil": 1360,
      "mas": 1361,
      "hate": 1362,
      "compare": 1363,
      "Danik": 1364,
      "sieve": 1365,
      "br": 1366,
      "brr": 1367,
      "cs": 1368,
      "cw": 1369,
      "hit": 1370,
      "max2": 1371,
      "ress": 1372,
      "asc": 1373,
      "ones": 1374,
      "month": 1375,
      "Do": 1376,
      "]])": 1377,
      "ye": 1378,
      "ons": 1379,
      "lack": 1380,
      "\"|#.#.#.#.#.#.#.#.#.#.": 1381,
      "RE": 1382,
      "eed": 1383,
      "pol": 1384,
      "unt": 1385,
      "alt": 1386,
      "min3": 1387,
      "gest": 1388,
      "contain": 1389,
      "#.|.|)\"": 1390,
      "whichPos": 1391,
      "distance": 1392,
      "whichPosn": 1393,
      "Mind": 1394,
      "Soul": 1395,
      "]][": 1396,
      "ation": 1397,
      "card": 1398,
      "est": 1399,
      "sc": 1400,
      "three": 1401,
      "ality": 1402,
      "dest": 1403,
      "winner": 1404,
      "Reality": 1405,
      "dimensional": 1406,
      "Space": 1407,
      "28": 1408,
      "OR": 1409,
      "Str": 1410,
      "tm": 1411,
      "ys": 1412,
      "res2": 1413,
      "ccw": 1414,
      "prog": 1415,
      "Incorrect": 1416,
      "_max": 1417,
      "pt": 1418,
      "keyboard": 1419,
      "infinite": 1420,
      "65": 1421,
      "AT": 1422,
      "CH": 1423,
      "GNO": 1424,
      "HIM": 1425,
      "HER": 1426,
      "IGNO": 1427,
      "Misha": 1428,
      "Vasya": 1429,
      "WIT": 1430,
      "ak": 1431,
      "thing": 1432,
      "sumb": 1433,
      "sizes": 1434,
      "sup": 1435,
      "marks": 1436,
      "file": 1437,
      "cpy": 1438,
      "CHAT": 1439,
      "IGNORE": 1440,
      "WITH": 1441,
      ";)": 1442,
      "aur": 1443,
      "nu": 1444,
      "w2": 1445,
      "tolower": 1446,
      "exist": 1447,
      "looping": 1448,
      "shu": 1449,
      "999": 1450,
      "Set": 1451,
      "_1": 1452,
      "_pair": 1453,
      "pur": 1454,
      "ting": 1455,
      "sent": 1456,
      "ary": 1457,
      "make_pair": 1458,
      "1111": 1459,
      "'#')": 1460,
      "40": 1461,
      "ag": 1462,
      "bil": 1463,
      "block": 1464,
      "ctr": 1465,
      "ql": 1466,
      "va": 1467,
      "vs": 1468,
      "w1": 1469,
      "ch1": 1470,
      "team": 1471,
      "pos2": 1472,
      "statement": 1473,
      "work": 1474,
      "How": 1475,
      "Kare": 1476,
      "Pen": 1477,
      "[],": 1478,
      "turn": 1479,
      "req": 1480,
      "ority": 1481,
      "ister": 1482,
      "sum_": 1483,
      "lah": 1484,
      "mode": 1485,
      "lessons": 1486,
      "tmp1": 1487,
      "starty": 1488,
      "light": 1489,
      "flg": 1490,
      "jumlah": 1491,
      "priority": 1492,
      "register": 1493,
      "Howard": 1494,
      "Karen": 1495,
      "Penny": 1496,
      "S2": 1497,
      "ds": 1498,
      "ly": 1499,
      "vb": 1500,
      "wel": 1501,
      "xs": 1502,
      "throu": 1503,
      "maxm": 1504,
      "come": 1505,
      "vowel": 1506,
      "123": 1507,
      "yak": 1508,
      "ucky": 1509,
      "33": 1510,
      "864": 1511,
      "Oh": 1512,
      "Raj": 1513,
      "Shel": 1514,
      "Tie": 1515,
      "don": 1516,
      "esh": 1517,
      "gro": 1518,
      "kl": 1519,
      "onard": 1520,
      "become": 1521,
      "its": 1522,
      "10000000": 1523,
      "#.|.|\"": 1524,
      "stdout": 1525,
      "alpha": 1526,
      "guy": 1527,
      "Leonard": 1528,
      "\"?\"": 1529,
      "through": 1530,
      "86400": 1531,
      "Rajesh": 1532,
      "Sheldon": 1533,
      ").": 1534,
      "Ro": 1535,
      "UT": 1536,
      "Whi": 1537,
      "bin": 1538,
      "md": 1539,
      "ob": 1540,
      "same": 1541,
      "000": 1542,
      "minate": 1543,
      "startx": 1544,
      "numbers": 1545,
      "hitung": 1546,
      "ig": 1547,
      "lt": 1548,
      "ni": 1549,
      "pla": 1550,
      "orange": 1551,
      "strcmp": 1552,
      "vectors": 1553,
      "erence": 1554,
      "stone": 1555,
      "reference": 1556,
      "poly": 1557,
      "purple": 1558,
      "place": 1559,
      "\"#.": 1560,
      "(!(": 1561,
      "'['": 1562,
      "16": 1563,
      "Black": 1564,
      "TS": 1565,
      "TES": 1566,
      "yel": 1567,
      "ch2": 1568,
      "creasing": 1569,
      "cot": 1570,
      "oney": 1571,
      "diag": 1572,
      "zzzz": 1573,
      "banyak": 1574,
      "command": 1575,
      "White": 1576,
      "TESTS": 1577,
      "yellow": 1578,
      ",\"": 1579,
      "Dasha": 1580,
      "Masha": 1581,
      "XX": 1582,
      "[++": 1583,
      "_min": 1584,
      "ao": 1585,
      "ast": 1586,
      "pw": 1587,
      "so": 1588,
      "seq": 1589,
      "loc": 1590,
      ")))": 1591,
      "501": 1592,
      "lar": 1593,
      "nx": 1594,
      "wei": 1595,
      "stack": 1596,
      "setting": 1597,
      "mina": 1598,
      "]));": 1599,
      "nothing": 1600,
      "min_i": 1601,
      "min_j": 1602,
      "fixed": 1603,
      "after": 1604,
      "BWBW": 1605,
      "Oc": 1606,
      "Sol": 1607,
      "_start": 1608,
      "ax": 1609,
      "gan": 1610,
      "imax": 1611,
      "action": 1612,
      "does": 1613,
      "curlower": 1614,
      "udmoves": 1615,
      "rlmoves": 1616,
      "until": 1617,
      "\"};": 1618,
      "jil": 1619,
      "t3": 1620,
      "ube": 1621,
      "side": 1622,
      "ending": 1623,
      "love": 1624,
      "max_i": 1625,
      "max_j": 1626,
      "240": 1627,
      "status": 1628,
      "ganjil": 1629,
      "90": 1630,
      "fac": 1631,
      "hang": 1632,
      "q1": 1633,
      "err": 1634,
      "tam": 1635,
      "INT_MIN": 1636,
      "grap": 1637,
      "players": 1638,
      "Co": 1639,
      "bt": 1640,
      "bus": 1641,
      "hu": 1642,
      "ln": 1643,
      "num3": 1644,
      "10005": 1645,
      "spf": 1646,
      "goto": 1647,
      "|.|\"": 1648,
      ".#.#.#.#.#.#.#.#.#.#.": 1649,
      "divided": 1650,
      "':')": 1651,
      "columns": 1652,
      "graph": 1653,
      "\"/": 1654,
      "PH": 1655,
      "hal": 1656,
      "ves": 1657,
      "'))": 1658,
      "address": 1659,
      "content": 1660,
      "booleans": 1661,
      "2001": 1662,
      "Equal": 1663,
      "_sum": 1664,
      "deg": 1665,
      "ee": 1666,
      "money": 1667,
      "form": 1668,
      "ded": 1669,
      "00000": 1670,
      "ffff": 1671,
      "biao": 1672,
      "letters": 1673,
      "\"/\"": 1674,
      "']++;": 1675,
      "P1": 1676,
      "T2": 1677,
      "itr": 1678,
      "pas": 1679,
      "resize": 1680,
      "our": 1681,
      "del": 1682,
      "putchar": 1683,
      "year": 1684,
      "96": 1685,
      "Alice": 1686,
      "MX": 1687,
      "du": 1688,
      "wri": 1689,
      "deca": 1690,
      "box": 1691,
      "ador": 1692,
      "keep": 1693,
      "tahedron": 1694,
      "trahedron": 1695,
      "decahedron": 1696,
      "!(": 1697,
      "AQ": 1698,
      "Bob": 1699,
      "Ter": 1700,
      "_ans": 1701,
      "sel": 1702,
      "sta": 1703,
      "mak": 1704,
      "sumr": 1705,
      "dp0": 1706,
      "calc": 1707,
      "present": 1708,
      "Terminate": 1709,
      "BB": 1710,
      "Cube": 1711,
      "Te": 1712,
      "]];": 1713,
      "den": 1714,
      "jkl": 1715,
      "ki": 1716,
      "was": 1717,
      "hi2": 1718,
      "maxs": 1719,
      "lena": 1720,
      "00000000": 1721,
      "ulb": 1722,
      "mxm": 1723,
      "159": 1724,
      "goal": 1725,
      "|.|)\"": 1726,
      "buff": 1727,
      "14159": 1728,
      "ascending": 1729,
      "Dodecahedron": 1730,
      "Roz": 1731,
      "Octahedron": 1732,
      "Tetrahedron": 1733,
      "wea": 1734,
      "{};": 1735,
      "dp1": 1736,
      "angle": 1737,
      "3e": 1738,
      "IE": 1739,
      "To": 1740,
      "TIE": 1741,
      "dc": 1742,
      "mpar": 1743,
      "lenb": 1744,
      "calling": 1745,
      "freopen": 1746,
      "cry": 1747,
      "'?'": 1748,
      "!^^\"": 1749,
      "half": 1750,
      "Mo": 1751,
      "Row": 1752,
      "_queue": 1753,
      "n_": 1754,
      "cho": 1755,
      "stringstream": 1756,
      "defined": 1757,
      "Input": 1758,
      "priority_queue": 1759,
      "Int": 1760,
      "S3": 1761,
      "Too": 1762,
      "UL": 1763,
      "non": 1764,
      "oban": 1765,
      "ure": 1766,
      "zx": 1767,
      "counting": 1768,
      "1e3": 1769,
      "subtraction": 1770,
      "amount": 1771,
      "3000": 1772,
      "clock": 1773,
      "contents": 1774,
      "write": 1775,
      "weak": 1776,
      "\"),": 1777,
      "80": 1778,
      "cop": 1779,
      "fx": 1780,
      "lucky": 1781,
      "xor": 1782,
      "summ": 1783,
      "maxy": 1784,
      "total_": 1785,
      "weight": 1786,
      "'^": 1787,
      "220": 1788,
      "400": 1789,
      "Con": 1790,
      "RA": 1791,
      "_2": 1792,
      "dg": 1793,
      "rx": 1794,
      "max3": 1795,
      "contest": 1796,
      "dos": 1797,
      "cosa": 1798,
      "first_": 1799,
      "previ": 1800,
      "page": 1801,
      "proce": 1802,
      "depth": 1803,
      "is_prime": 1804,
      "cosahedron": 1805,
      "previous": 1806,
      "fy": 1807,
      "tu": 1808,
      "tstep": 1809,
      "xt": 1810,
      "yes": 1811,
      "ank": 1812,
      "sumc": 1813,
      "maxN": 1814,
      "rotate": 1815,
      "bot": 1816,
      "votes": 1817,
      "cake": 1818,
      "aux2": 1819,
      "CD": 1820,
      "GRA": 1821,
      "GCD": 1822,
      "Icosahedron": 1823,
      "OT": 1824,
      "_str": 1825,
      "j1": 1826,
      "oven": 1827,
      "reset": 1828,
      "undefined": 1829,
      "')')": 1830,
      "dot": 1831,
      "soroban": 1832,
      "chess": 1833,
      "vert": 1834,
      "words": 1835,
      "#.|.|)": 1836,
      "GRAPH": 1837,
      "'}": 1838,
      "fal": 1839,
      "lca": 1840,
      "uce": 1841,
      "cell": 1842,
      "indrom": 1843,
      "aux1": 1844,
      "final": 1845,
      "bak": 1846,
      "150": 1847,
      "DL": 1848,
      "LC": 1849,
      "Ops": 1850,
      "PUT": 1851,
      "ULL": 1852,
      "fe": 1853,
      "mer": 1854,
      "mishka": 1855,
      "pb": 1856,
      "sd": 1857,
      "ui": 1858,
      "v3": 1859,
      "wt": 1860,
      "eros": 1861,
      "numOps": 1862,
      "com": 1863,
      "prices": 1864,
      "cycle": 1865,
      "'<": 1866,
      ".\";": 1867,
      "29": 1868,
      "47": 1869,
      "Next": 1870,
      "P2": 1871,
      "_size": 1872,
      "cx": 1873,
      "cand": 1874,
      "cil": 1875,
      "nm": 1876,
      "smal": 1877,
      "wa": 1878,
      "old": 1879,
      "205": 1880,
      "1000001": 1881,
      "menor": 1882,
      "smalle": 1883,
      "Found": 1884,
      "Len": 1885,
      "Size": 1886,
      "ULD": 1887,
      "bfs": 1888,
      "cad": 1889,
      "cvb": 1890,
      "fgh": 1891,
      "n3": 1892,
      "pd": 1893,
      "rt": 1894,
      "invo": 1895,
      "anak": 1896,
      "beat": 1897,
      "till": 1898,
      "numOf": 1899,
      "ope": 1900,
      "more": 1901,
      "arg1": 1902,
      "colo": 1903,
      "111": 1904,
      "speed": 1905,
      "reduce": 1906,
      "200010": 1907,
      "divisor": 1908,
      "matrix": 1909,
      "zxcvb": 1910,
      "ULDR": 1911,
      "fghjkl": 1912,
      "invoke": 1913,
      "anako": 1914,
      "zxcvbnm": 1915,
      "'[": 1916,
      "Va": 1917,
      "_s": 1918,
      "fo": 1919,
      "imin": 1920,
      "ji": 1921,
      "mmin": 1922,
      "yt": 1923,
      "seg": 1924,
      "args": 1925,
      "coin": 1926,
      "dier": 1927,
      "122": 1928,
      "diff2": 1929,
      "have": 1930,
      "numberOf": 1931,
      "':'": 1932,
      ",.": 1933,
      "Ci": 1934,
      "GOT": 1935,
      "_count": 1936,
      "b_": 1937,
      "cti": 1938,
      "fing": 1939,
      "kan": 1940,
      "o1": 1941,
      "qwer": 1942,
      "xay": 1943,
      "z1": 1944,
      "ink": 1945,
      "rep": 1946,
      "togg": 1947,
      "strcpy": 1948,
      "]]]": 1949,
      "diff1": 1950,
      "find_": 1951,
      "tyui": 1952,
      "spec": 1953,
      "bits": 1954,
      "asdfghjkl": 1955,
      "matriz": 1956,
      "drink": 1957,
      "proceed": 1958,
      "Ciel": 1959,
      "GOTO": 1960,
      "fingers": 1961,
      "qwertyui": 1962,
      "toggle": 1963,
      "qwertyuiop": 1964,
      "^=": 1965,
      "av": 1966,
      "mmax": 1967,
      "neg": 1968,
      "o2": 1969,
      "qq": 1970,
      "ry": 1971,
      "t0": 1972,
      "{'": 1973,
      "may": 1974,
      "str3": 1975,
      "mp1": 1976,
      "respe": 1977,
      "nore": 1978,
      "acum": 1979,
      "')'": 1980,
      "post": 1981,
      "505": 1982,
      "buf": 1983,
      "limit": 1984,
      "silisa": 1985,
      "ignore": 1986,
      "\"#.\";": 1987,
      "copy": 1988,
      "Vasilisa": 1989,
      "respecti": 1990,
      "(*": 1991,
      "0LL": 1992,
      "1ll": 1993,
      "DR": 1994,
      "Hanako": 1995,
      "Nik": 1996,
      "Ol": 1997,
      "Pic": 1998,
      "Sort": 1999,
      "Still": 2000,
      "_time": 2001,
      "cas": 2002,
      "lc": 2003,
      "ome": 2004,
      "vl": 2005,
      "y3": 2006,
      "isdigit": 2007,
      "ash": 2008,
      "ita": 2009,
      "aten": 2010,
      "short": 2011,
      "code": 2012,
      "cur_": 2013,
      "dil": 2014,
      "time2": 2015,
      "\"|.|": 2016,
      "200001": 2017,
      "Danil": 2018,
      "'?')": 2019,
      "record": 2020,
      "1415926": 2021,
      "Rozdil": 2022,
      "crypt": 2023,
      "Nikita": 2024,
      "Olya": 2025,
      "Mod": 2026,
      "P3": 2027,
      "QAQ": 2028,
      "a_": 2029,
      "bk": 2030,
      "carr": 2031,
      "ct1": 2032,
      "hor": 2033,
      "lab": 2034,
      "wal": 2035,
      "{-": 2036,
      "to_": 2037,
      "tom": 2038,
      "iso": 2039,
      "arg2": 2040,
      "time1": 2041,
      "1000006": 2042,
      "player": 2043,
      "vely": 2044,
      "stdin": 2045,
      "indrome": 2046,
      "candid": 2047,
      "respectively": 2048,
      "68": 2049,
      "FS": 2050,
      "ONG": 2051,
      "Sla": 2052,
      "Zeros": 2053,
      "_p": 2054,
      "bal": 2055,
      "ger": 2056,
      "jw": 2057,
      "round": 2058,
      "tree": 2059,
      "stu": 2060,
      "exc": 2061,
      "chris": 2062,
      "ays": 2063,
      "ants": 2064,
      "mnm": 2065,
      "hasil": 2066,
      "steps": 2067,
      "max_element": 2068,
      "Ann": 2069,
      "cmd": 2070,
      "raw": 2071,
      "floor": 2072,
      "remaining": 2073,
      "levels": 2074,
      "aurants": 2075,
      "bills": 2076,
      "colom": 2077,
      "ONG_": 2078,
      "Slava": 2079,
      "'][": 2080,
      "Cr": 2081,
      "a4": 2082,
      "ct2": 2083,
      "nCr": 2084,
      "plen": 2085,
      "rta": 2086,
      "xf": 2087,
      "toupper": 2088,
      "crew": 2089,
      "sumz": 2090,
      "maxa": 2091,
      "numb": 2092,
      "sign_": 2093,
      "kecil": 2094,
      "MAX_": 2095,
      "answers": 2096,
      "save": 2097,
      "primo": 2098,
      "999999999": 2099,
      "bottom": 2100,
      "17": 2101,
      "23": 2102,
      "67": 2103,
      "CUR": 2104,
      "End": 2105,
      "c0": 2106,
      "done": 2107,
      "e_": 2108,
      "ns": 2109,
      "pare": 2110,
      "xy": 2111,
      "yf": 2112,
      "zation": 2113,
      "ours": 2114,
      "ara2": 2115,
      "node": 2116,
      "active": 2117,
      "1000010": 2118,
      "pref": 2119,
      "interval": 2120,
      "max_n": 2121,
      "finish": 2122,
      "ajout": 2123,
      "Number2": 2124,
      "password": 2125,
      "ways": 2126,
      "gesture": 2127,
      "Solve": 2128,
      "subtractions_": 2129,
      "qwertyuiopasdfghjkl": 2130,
      "carry": 2131,
      "parent": 2132,
      "30000": 2133,
      "Bulb": 2134,
      "State": 2135,
      "gi": 2136,
      "kt": 2137,
      "mx1": 2138,
      "salt": 2139,
      "xsum": 2140,
      "isgro": 2141,
      "arch": 2142,
      "vest": 2143,
      "()),": 2144,
      "sumA": 2145,
      "cntr": 2146,
      "asaur": 2147,
      "shel": 2148,
      ")));": 2149,
      "riba": 2150,
      "128": 2151,
      "999999": 2152,
      "positive": 2153,
      "5000": 2154,
      "dep_": 2155,
      "factor": 2156,
      "cakes": 2157,
      "falsy": 2158,
      "'[')": 2159,
      "kanan": 2160,
      "Bulbasaur": 2161,
      ")];": 2162,
      "535": 2163,
      "Joy": 2164,
      "Need": 2165,
      "Temp": 2166,
      "dsa": 2167,
      "fr": 2168,
      "io": 2169,
      "lin": 2170,
      "mu": 2171,
      "pv": 2172,
      "une": 2173,
      "ysum": 2174,
      "isV": 2175,
      "loss": 2176,
      "counta": 2177,
      ")),": 2178,
      "contador": 2179,
      "names": 2180,
      "9999999": 2181,
      "305": 2182,
      "Che": 2183,
      "Number1": 2184,
      "distanc": 2185,
      "largest": 2186,
      "1415926535": 2187,
      "uneven": 2188,
      "\"\",": 2189,
      "De": 2190,
      "Map": 2191,
      "ica": 2192,
      "nb": 2193,
      "ng": 2194,
      "om": 2195,
      "tmo": 2196,
      "increasing": 2197,
      "ance": 2198,
      "this": 2199,
      "ar1": 2200,
      "returned": 2201,
      "deci": 2202,
      "cha": 2203,
      "tels": 2204,
      "modul": 2205,
      "ats": 2206,
      "000000": 2207,
      "ant2": 2208,
      "Counter": 2209,
      "c_str": 2210,
      "hotels": 2211,
      "stati": 2212,
      "candidate": 2213,
      "decimal": 2214,
      "**": 2215,
      "600": 2216,
      "70": 2217,
      "AN": 2218,
      "G1": 2219,
      "Home": 2220,
      "MN": 2221,
      "bul": 2222,
      "da": 2223,
      "f3": 2224,
      "ju": 2225,
      "lst": 2226,
      "lsum": 2227,
      "misha": 2228,
      "q2": 2229,
      "s0": 2230,
      "sl": 2231,
      "yke": 2232,
      "{},": 2233,
      "lef": 2234,
      "arm": 2235,
      "ans3": 2236,
      "als": 2237,
      "endx": 2238,
      "endy": 2239,
      "arra": 2240,
      "chr": 2241,
      "sumy": 2242,
      "size_n": 2243,
      "lose": 2244,
      "qua": 2245,
      "lens": 2246,
      "numer": 2247,
      "pole": 2248,
      "1e8": 2249,
      "2002": 2250,
      "spyke": 2251,
      "fff": 2252,
      "5001": 2253,
      "5005": 2254,
      "Char": 2255,
      "palin": 2256,
      "'>": 2257,
      ")((": 2258,
      "52": 2259,
      "Let": 2260,
      "Oven": 2261,
      "cn1": 2262,
      "ev": 2263,
      "ever": 2264,
      "frest": 2265,
      "nex": 2266,
      "sn": 2267,
      "uter": 2268,
      "yu": 2269,
      "mall": 2270,
      "()],": 2271,
      "decreasing": 2272,
      "sumx": 2273,
      "cnta": 2274,
      "bob": 2275,
      "indx": 2276,
      "righ": 2277,
      "progr": 2278,
      "computer": 2279,
      "palindrome": 2280,
      "String": 2281,
      "binary": 2282,
      "nonzero": 2283,
      "coins": 2284,
      "210": 2285,
      "5e": 2286,
      "88": 2287,
      "DFS": 2288,
      "Find": 2289,
      "Pre": 2290,
      "_la": 2291,
      "bisa": 2292,
      "dt": 2293,
      "hur": 2294,
      "lr": 2295,
      "nded": 2296,
      "qta": 2297,
      "qtb": 2298,
      "rc": 2299,
      "sat": 2300,
      "xmax": 2301,
      "erate": 2302,
      "chang": 2303,
      "suml": 2304,
      "loca": 2305,
      "103": 2306,
      "miny": 2307,
      "she": 2308,
      "shap": 2309,
      "1e2": 2310,
      "mxv": 2311,
      "\"|#": 2312,
      "gov": 2313,
      "inlined": 2314,
      "rati": 2315,
      "_a_la": 2316,
      "rounded": 2317,
      "games": 2318,
      "contains": 2319,
      "numa": 2320,
      "stones": 2321,
      "dos_a_la": 2322,
      "modulus": 2323,
      "satu": 2324,
      "changing": 2325,
      "34": 2326,
      "45": 2327,
      "Ex": 2328,
      "Go": 2329,
      "mk": 2330,
      "tp1": 2331,
      "inc": 2332,
      "inv": 2333,
      "search": 2334,
      "sible": 2335,
      "desk": 2336,
      "loct": 2337,
      "conti": 2338,
      "mov": 2339,
      "tempm": 2340,
      "tation": 2341,
      "possible": 2342,
      "maxi2": 2343,
      "letter_start": 2344,
      "fast_": 2345,
      "guous": 2346,
      "num_start": 2347,
      "containing": 2348,
      "deno": 2349,
      "3e5": 2350,
      "every": 2351,
      "contiguous": 2352,
      "'!": 2353,
      "'};": 2354,
      "214": 2355,
      "364": 2356,
      "748": 2357,
      "Cnt": 2358,
      "It": 2359,
      "Koy": 2360,
      "Pow": 2361,
      "Qr": 2362,
      "VI": 2363,
      "Val": 2364,
      "_op": 2365,
      "four": 2366,
      "hb": 2367,
      "n0": 2368,
      "nc": 2369,
      "nr": 2370,
      "omi": 2371,
      "sal": 2372,
      "ses": 2373,
      "st2": 2374,
      "mask": 2375,
      "exec": 2376,
      "sumd": 2377,
      "maxlen": 2378,
      "mp2": 2379,
      "res_": 2380,
      "tot1": 2381,
      "tot2": 2382,
      "getInt": 2383,
      "soldier": 2384,
      "\"|\";": 2385,
      "|.|)": 2386,
      "data2": 2387,
      "amt": 2388,
      "sag": 2389,
      "restaurants": 2390,
      "-|-": 2391,
      "1000000009LL": 2392,
      "normal": 2393,
      "biaoj": 2394,
      "ONG_MAX": 2395,
      "Letter": 2396,
      "214748": 2397,
      "Koyomi": 2398,
      "Value": 2399,
      "214748364": 2400,
      ">(": 2401,
      ">());": 2402,
      "Out": 2403,
      "criba": 2404,
      "dth": 2405,
      "ive": 2406,
      "kat": 2407,
      "tone": 2408,
      "isp": 2409,
      "ume": 2410,
      "()));": 2411,
      "width": 2412,
      "exe_": 2413,
      "incremented": 2414,
      "ters": 2415,
      "acc": 2416,
      "100002": 2417,
      "su2": 2418,
      "prefix": 2419,
      "usa": 2420,
      "maxi1": 2421,
      "lowercase": 2422,
      "min_element": 2423,
      "'*'": 2424,
      "lie": 2425,
      "dua": 2426,
      "label": 2427,
      "MAX_N": 2428,
      "19": 2429,
      "Hash": 2430,
      "_f": 2431,
      "cb": 2432,
      "fact": 2433,
      "gen": 2434,
      "hj": 2435,
      "kq": 2436,
      "lz": 2437,
      "mint": 2438,
      "npos": 2439,
      "pen": 2440,
      "pack": 2441,
      "wen": 2442,
      "toi": 2443,
      "send": 2444,
      "lea": 2445,
      "thod": 2446,
      "vet": 2447,
      "chat": 2448,
      "sumB": 2449,
      "sums": 2450,
      "sum_b": 2451,
      "tical": 2452,
      "ties": 2453,
      "numver": 2454,
      "method": 2455,
      "pot": 2456,
      "ado": 2457,
      "calc_": 2458,
      "mx2": 2459,
      "mn1": 2460,
      "checker": 2461,
      "plica": 2462,
      "INF_": 2463,
      "1000000007LL": 2464,
      "xxx": 2465,
      "test1": 2466,
      "'-';": 2467,
      "difference": 2468,
      "_bound": 2469,
      "ciones": 2470,
      "hello": 2471,
      "nuts": 2472,
      "minator": 2473,
      "Moves": 2474,
      "Contest": 2475,
      "merge": 2476,
      "given": 2477,
      "ANS": 2478,
      "lzl": 2479,
      "Cmp": 2480,
      "Win": 2481,
      "atoi": 2482,
      "fg": 2483,
      "har": 2484,
      "iro": 2485,
      "ias": 2486,
      "jth": 2487,
      "jav": 2488,
      "qmarks": 2489,
      "tdiff": 2490,
      "des": 2491,
      "maxl": 2492,
      "len2": 2493,
      "tempn": 2494,
      "acterias": 2495,
      "mn2": 2496,
      "index1": 2497,
      "finall": 2498,
      "colors": 2499,
      "squared": 2500,
      "multipli": 2501,
      "workTime": 2502,
      "locg": 2503,
      "1100": 2504,
      "44": 2505,
      "Star": 2506,
      "Way": 2507,
      "_c": 2508,
      "dan": 2509,
      "f_a": 2510,
      "gs": 2511,
      "grest": 2512,
      "ihash": 2513,
      "liter": 2514,
      "m3": 2515,
      "ncr": 2516,
      "prea": 2517,
      "son": 2518,
      "slog": 2519,
      "tin": 2520,
      "ten": 2521,
      "vm": 2522,
      "ving": 2523,
      "vasya": 2524,
      "anton": 2525,
      "org": 2526,
      "andd": 2527,
      "ments": 2528,
      "deq": 2529,
      "desp": 2530,
      "ched": 2531,
      "maxr": 2532,
      "cnt3": 2533,
      "timi": 2534,
      "ople": 2535,
      "unch": 2536,
      "fail": 2537,
      "1e10": 2538,
      "map1": 2539,
      "second_": 2540,
      "203": 2541,
      "having": 2542,
      "number_": 2543,
      "counter_": 2544,
      "owel": 2545,
      "people": 2546,
      "tttt": 2547,
      "digits": 2548,
      "Array": 2549,
      "bigger": 2550,
      "tabla": 2551,
      "modex": 2552,
      "\"#.\"": 2553,
      "oven1": 2554,
      "LCM": 2555,
      "primos": 2556,
      "NeedTime": 2557,
      "isVowel": 2558,
      "static": 2559,
      "erate_op": 2560,
      "location": 2561,
      "2147483647": 2562,
      "danik": 2563,
      "prealoc": 2564,
      "slogan": 2565,
      "desperate_op": 2566,
      "timization": 2567,
      "desperate_optimization": 2568,
      "\"}": 2569,
      "'|": 2570,
      "']);": 2571,
      "(&": 2572,
      "Day": 2573,
      "One": 2574,
      "Word": 2575,
      "fir": 2576,
      "ios": 2577,
      "k3": 2578,
      "larg": 2579,
      "wr": 2580,
      "zhu": 2581,
      "replace": 2582,
      "ane": 2583,
      "lete": 2584,
      "neo": 2585,
      "minim": 2586,
      "abc": 2587,
      "adding": 2588,
      "tai": 2589,
      "ant1": 2590,
      "ches": 2591,
      "10001": 2592,
      "discounts": 2593,
      "cols": 2594,
      "path": 2595,
      "pairt": 2596,
      "mini1": 2597,
      "mini2": 2598,
      "angtai": 2599,
      "divs": 2600,
      "Mina": 2601,
      "Minb": 2602,
      "best_": 2603,
      "program": 2604,
      "execute": 2605,
      "Output": 2606,
      "larger": 2607,
      "zhuangtai": 2608,
      "3F": 2609,
      "57": 2610,
      "Fi": 2611,
      "If": 2612,
      "Pa": 2613,
      "Pri": 2614,
      "Ql": 2615,
      "]],": 2616,
      "_char": 2617,
      "cz": 2618,
      "cmax": 2619,
      "df": 2620,
      "ey": 2621,
      "hap": 2622,
      "mt": 2623,
      "n4": 2624,
      "nan": 2625,
      "nadj": 2626,
      "osign": 2627,
      "tp2": 2628,
      "ust": 2629,
      "vn": 2630,
      "xb": 2631,
      "yb": 2632,
      "|\"": 2633,
      "invert": 2634,
      "anti": 2635,
      "seen": 2636,
      "ene": 2637,
      "ond": 2638,
      "least": 2639,
      "ery": 2640,
      "isupper": 2641,
      "lett": 2642,
      "set2": 2643,
      "decrypt": 2644,
      "load": 2645,
      "query": 2646,
      "there": 2647,
      "terkecil": 2648,
      "minm": 2649,
      "minIn": 2650,
      "array_": 2651,
      "1002": 2652,
      "100100": 2653,
      "trans": 2654,
      "most": 2655,
      "acosign": 2656,
      "modi": 2657,
      "doit": 2658,
      "1e4": 2659,
      "cel": 2660,
      "voters": 2661,
      "100000000000000": 2662,
      "check1": 2663,
      "ctx": 2664,
      "gover": 2665,
      "0x7": 2666,
      "poww": 2667,
      "amond": 2668,
      "matches": 2669,
      "sym": 2670,
      "hash1": 2671,
      "hash2": 2672,
      "Primes": 2673,
      "jump": 2674,
      "is_square": 2675,
      "target": 2676,
      "timr": 2677,
      "\"|#.#.#.#.#.#.#.#.#.#.#.|.|)\"": 2678,
      "12345": 2679,
      "nike": 2680,
      "diag2": 2681,
      "zzzzzzzz": 2682,
      "large": 2683,
      "Code": 2684,
      "maks": 2685,
      "'^',": 2686,
      "comb": 2687,
      "678": 2688,
      "calc_subtractions_": 2689,
      "minIncl": 2690,
      "!\\": 2691,
      "OUT": 2692,
      "Vol": 2693,
      "bv": 2694,
      "imp": 2695,
      "jmax": 2696,
      "jmin": 2697,
      "lime": 2698,
      "oti": 2699,
      "pc": 2700,
      "ped": 2701,
      "qi": 2702,
      "rm": 2703,
      "sr": 2704,
      "slen": 2705,
      "sam": 2706,
      "xd": 2707,
      "yd": 2708,
      "indi": 2709,
      "tol": 2710,
      "ste": 2711,
      "ansx": 2712,
      "of_": 2713,
      "deque": 2714,
      "sumi": 2715,
      "sum_a": 2716,
      "quoti": 2717,
      "maxc": 2718,
      "len1": 2719,
      "cntb": 2720,
      "tims": 2721,
      "sss": 2722,
      "count_": 2723,
      "INPUT": 2724,
      "MAXT": 2725,
      "nowp": 2726,
      "dish": 2727,
      "prevc": 2728,
      "permu": 2729,
      "Max_": 2730,
      "angkat": 2731,
      "ada_": 2732,
      "alph": 2733,
      "commands": 2734,
      "Move": 2735,
      "'<')": 2736,
      "wait": 2737,
      "smallest": 2738,
      "jwb": 2739,
      "multiplied": 2740,
      "OUTPUT": 2741,
      "Volume": 2742,
      "quotient": 2743,
      "permutation": 2744,
      "\"<": 2745,
      "\">": 2746,
      "21": 2747,
      "580": 2748,
      "547": 2749,
      "7203": 2750,
      "7580": 2751,
      "922": 2752,
      "Ca": 2753,
      "Cb": 2754,
      "Ele": 2755,
      "FF": 2756,
      "Io": 2757,
      "Vec": 2758,
      "XS": 2759,
      "_r": 2760,
      "_sort": 2761,
      "cant": 2762,
      "city": 2763,
      "dm": 2764,
      "d_x": 2765,
      "d_y": 2766,
      "f_": 2767,
      "hack": 2768,
      "hours": 2769,
      "kc": 2770,
      "kh": 2771,
      "ktor": 2772,
      "lj": 2773,
      "lx": 2774,
      "nas": 2775,
      "ptr": 2776,
      "ssum": 2777,
      "small": 2778,
      "ula": 2779,
      "wy": 2780,
      "encon": 2781,
      "lection": 2782,
      "siz": 2783,
      "ar2": 2784,
      "st1": 2785,
      "retary": 2786,
      "strr": 2787,
      "loser": 2788,
      "maxcnt": 2789,
      "maxSize": 2790,
      "minP": 2791,
      "mino": 2792,
      "rot": 2793,
      "condi": 2794,
      "abra": 2795,
      "trado": 2796,
      "numedges": 2797,
      "faktor": 2798,
      "sorted": 2799,
      "cdays": 2800,
      "cont2": 2801,
      "posy": 2802,
      "discount": 2803,
      "ply": 2804,
      "swapped": 2805,
      "vertical": 2806,
      "pairs": 2807,
      "data1": 2808,
      "data3": 2809,
      "safe": 2810,
      "fastIo": 2811,
      "Pointer": 2812,
      "palabra": 2813,
      "secretary": 2814,
      "cases": 2815,
      "nama": 2816,
      "lights": 2817,
      "jumlahgen": 2818,
      "337203": 2819,
      ".#.#.#.#.#.#.#.#.#.#.|": 2820,
      "BBBB": 2821,
      "oven2": 2822,
      "'}'": 2823,
      "smaller": 2824,
      "numberOfEle": 2825,
      "68547": 2826,
      "14159265358": 2827,
      "res_arr": 2828,
      "75807": 2829,
      "922337203": 2830,
      "Vector": 2831,
      "encontrado": 2832,
      "condition": 2833,
      "jumlahgenap": 2834,
      "numberOfElements": 2835,
      "6854775807": 2836,
      "9223372036854775807": 2837,
      ",'": 2838,
      "0th": 2839,
      "Gy": 2840,
      "Last": 2841,
      "XL": 2842,
      "_permutation": 2843,
      "bc": 2844,
      "band": 2845,
      "bited": 2846,
      "g2": 2847,
      "hn": 2848,
      "ht": 2849,
      "mc": 2850,
      "ml": 2851,
      "oil": 2852,
      "tank": 2853,
      "uf": 2854,
      "us1": 2855,
      "ution": 2856,
      "|#.#.#.#.#.#.#.#.#.#.": 2857,
      "inal": 2858,
      "ano": 2859,
      "()))": 2860,
      "dex": 2861,
      "hibited": 2862,
      "cnt4": 2863,
      "cnt7": 2864,
      "10010": 2865,
      "las": 2866,
      "flagA": 2867,
      "coty": 2868,
      "tag": 2869,
      "100009": 2870,
      "suff": 2871,
      "posx": 2872,
      "taken": 2873,
      "next_permutation": 2874,
      "prohibited": 2875,
      "comp2": 2876,
      "Index": 2877,
      "free": 2878,
      "'?';": 2879,
      "medals": 2880,
      "pointed": 2881,
      "cups": 2882,
      "\"|#.#.#.#.#.#.#.#.#.#.#.|": 2883,
      "cards": 2884,
      "hangx": 2885,
      "xorr": 2886,
      "fore": 2887,
      ",./": 2888,
      "\"|#.......................|\"": 2889,
      "step1": 2890,
      "Gym": 2891,
      ")])": 2892,
      "-\"": 2893,
      "46": 2894,
      ":\"": 2895,
      "Lucky": 2896,
      "Name": 2897,
      "Same": 2898,
      "Vo": 2899,
      "X1": 2900,
      "X2": 2901,
      "[{": 2902,
      "friends": 2903,
      "ipe": 2904,
      "je": 2905,
      "jara": 2906,
      "lf": 2907,
      "mis": 2908,
      "nul": 2909,
      "ngh": 2910,
      "occ": 2911,
      "pm": 2912,
      "px": 2913,
      "piso": 2914,
      "pangkat": 2915,
      "qpow": 2916,
      "rd": 2917,
      "rl1": 2918,
      "rl2": 2919,
      "use": 2920,
      "xmin": 2921,
      "ymax": 2922,
      "ymin": 2923,
      "sequ": 2924,
      "leaf": 2925,
      "isT": 2926,
      "prim": 2927,
      "setf": 2928,
      "1007": 2929,
      "mole": 2930,
      "modd": 2931,
      "')]": 2932,
      "vec1": 2933,
      "att": 2934,
      "func": 2935,
      "1e7": 2936,
      "get_": 2937,
      "suc": 2938,
      "beginat": 2939,
      ".|.|": 2940,
      "1000000001": 2941,
      "200100": 2942,
      "99999": 2943,
      "0x3f": 2944,
      "odds": 2945,
      "person": 2946,
      "_tc": 2947,
      "remove0": 2948,
      "when": 2949,
      "979": 2950,
      "part": 2951,
      "jumps": 2952,
      "smL": 2953,
      "smR": 2954,
      "buffer": 2955,
      "dep_u": 2956,
      "PreSum": 2957,
      "huruf": 2958,
      "transform": 2959,
      "6789": 2960,
      "14159265358979": 2961,
      "jarak": 2962,
      ")][": 2963,
      "66": 2964,
      ">,": 2965,
      "ZE": 2966,
      "_dest": 2967,
      "bj": 2968,
      "cn2": 2969,
      "f_ans": 2970,
      "ga": 2971,
      "gp": 2972,
      "ghi": 2973,
      "gyu": 2974,
      "h_": 2975,
      "hol": 2976,
      "iz": 2977,
      "mnt": 2978,
      "p9": 2979,
      "ror": 2980,
      "rprev": 2981,
      "ule": 2982,
      "x4": 2983,
      "zsum": 2984,
      "inct": 2985,
      "engyu": 2986,
      "printing": 2987,
      "answ": 2988,
      "enti": 2989,
      "without": 2990,
      "maxnum": 2991,
      "maxcount": 2992,
      "minb": 2993,
      "before": 2994,
      "shengyu": 2995,
      "ck1": 2996,
      "100007": 2997,
      "discard": 2998,
      "bitset": 2999,
      "nextPrime": 3000,
      "\"+\";": 3001,
      "rem1": 3002,
      "\"+------------------------+\";": 3003,
      "letter_dest": 3004,
      "SIZE": 3005,
      "num_p": 3006,
      "num_dest": 3007,
      "_stripe": 3008,
      "sign_X": 3009,
      "denominator": 3010,
      "&=": 3011,
      "1st": 3012,
      "1ULL": 3013,
      "300000": 3014,
      "Close": 3015,
      "On": 3016,
      "Su": 3017,
      "Ta": 3018,
      "Tot": 3019,
      "_P": 3020,
      "_i": 3021,
      "_m": 3022,
      "_money": 3023,
      "ama": 3024,
      "aea": 3025,
      "ative": 3026,
      "bor": 3027,
      "bst": 3028,
      "cmx": 3029,
      "cmn": 3030,
      "cerr": 3031,
      "eaten": 3032,
      "fuck": 3033,
      "j2": 3034,
      "lft": 3035,
      "mir": 3036,
      "nsp": 3037,
      "ppow": 3038,
      "qClose": 3039,
      "r3": 3040,
      "rank": 3041,
      "sand": 3042,
      "u_": 3043,
      "x0": 3044,
      "yat": 3045,
      "inve": 3046,
      "remn": 3047,
      "rend": 3048,
      "ansa": 3049,
      "ansb": 3050,
      "ansm": 3051,
      "ali": 3052,
      "conv": 3053,
      "convert": 3054,
      "cntc": 3055,
      "nom": 3056,
      "nome": 3057,
      "sho": 3058,
      "tmpa": 3059,
      "imon": 3060,
      "getint": 3061,
      "100004": 3062,
      "vote": 3063,
      "suck": 3064,
      "MAT": 3065,
      "map2": 3066,
      "checkodd": 3067,
      "bles": 3068,
      "ute_": 3069,
      "row_max": 3070,
      "row_min": 3071,
      "findfa": 3072,
      "1000007": 3073,
      "mybak": 3074,
      "mima": 3075,
      "perColor": 3076,
      "posiciones": 3077,
      "posibles": 3078,
      "pointers": 3079,
      "takeoff": 3080,
      "compar": 3081,
      "blyat": 3082,
      "':',": 3083,
      "bigmod": 3084,
      "9999999999": 3085,
      "log2": 3086,
      "jumlahganjil": 3087,
      "0005": 3088,
      "soma": 3089,
      "degree": 3090,
      "fffffff": 3091,
      "duplica": 3092,
      "cycle_start": 3093,
      "negative": 3094,
      "t01": 3095,
      "bills_": 3096,
      "sign_Y": 3097,
      "factors": 3098,
      "Chess": 3099,
      "orgStr": 3100,
      "3F3F": 3101,
      "antity": 3102,
      "array_value": 3103,
      "h_marks": 3104,
      "Sub": 3105,
      "mirror": 3106,
      "sandali": 3107,
      "\"..": 3108,
      "'])": 3109,
      "-\";": 3110,
      "From": 3111,
      "[])": 3112,
      "_State": 3113,
      "ator": 3114,
      "cat": 3115,
      "dq": 3116,
      "fpow": 3117,
      "kil": 3118,
      "lp": 3119,
      "lvl": 3120,
      "oc": 3121,
      "r0": 3122,
      "rad": 3123,
      "rbegin": 3124,
      "sv": 3125,
      "say": 3126,
      "ont": 3127,
      "sir": 3128,
      "prod": 3129,
      "maxv": 3130,
      "minval": 3131,
      "val1": 3132,
      "val2": 3133,
      "countb": 3134,
      "tmpb": 3135,
      "boox": 3136,
      "midTime": 3137,
      "2010": 3138,
      "INFF": 3139,
      "counter1": 3140,
      "counter2": 3141,
      "pet": 3142,
      "uda": 3143,
      "\"***": 3144,
      "limak": 3145,
      "'+'": 3146,
      "but": 3147,
      "parti": 3148,
      "kkk": 3149,
      "Read": 3150,
      "common": 3151,
      "infinitely": 3152,
      "error": 3153,
      "self": 3154,
      "choc": 3155,
      "old_t": 3156,
      "300005": 3157,
      "loss1": 3158,
      "loss2": 3159,
      "sheet": 3160,
      "hari": 3161,
      "wrong": 3162,
      "File": 3163,
      "\"=": 3164,
      "\":\"": 3165,
      ".#.|": 3166,
      "2LL": 3167,
      "38": 3168,
      "81": 3169,
      "Best": 3170,
      "Cal": 3171,
      "Di": 3172,
      "Dp": 3173,
      "Freq": 3174,
      "Get": 3175,
      "Id": 3176,
      "Ind": 3177,
      "Ids": 3178,
      "LINF": 3179,
      "NULL": 3180,
      "Odd": 3181,
      "Ph": 3182,
      "QQ": 3183,
      "bra": 3184,
      "cun": 3185,
      "cprice": 3186,
      "csx": 3187,
      "dar": 3188,
      "did": 3189,
      "hori": 3190,
      "kmax": 3191,
      "nw": 3192,
      "ores": 3193,
      "ph": 3194,
      "py": 3195,
      "pes": 3196,
      "slice": 3197,
      "ward": 3198,
      "yi": 3199,
      "ziro": 3200,
      "|\";": 3201,
      "}]": 3202,
      "ana": 3203,
      "toast": 3204,
      "seng": 3205,
      "ena": 3206,
      "ence": 3207,
      "encrypt": 3208,
      "isP": 3209,
      "ark": 3210,
      "stck": 3211,
      "mass": 3212,
      "ump": 3213,
      "()]": 3214,
      "()]))": 3215,
      "ofarray": 3216,
      "setprecision": 3217,
      "defa": 3218,
      "exclu": 3219,
      "exam": 3220,
      "chase": 3221,
      "white": 3222,
      "maxval": 3223,
      "maxsec": 3224,
      "maxEx": 3225,
      "107": 3226,
      "minr": 3227,
      "mindis": 3228,
      "minCo": 3229,
      "cntfloat": 3230,
      "valori": 3231,
      "tipe": 3232,
      "trump": 3233,
      "charnum": 3234,
      "num4": 3235,
      "num7": 3236,
      "numPa": 3237,
      "])]": 3238,
      "nok": 3239,
      "not_": 3240,
      "idays": 3241,
      "shee": 3242,
      "doc": 3243,
      "irs": 3244,
      "gcdofarray": 3245,
      "curInd": 3246,
      "oneArray": 3247,
      "getNext": 3248,
      "mn3": 3249,
      "pre_sum": 3250,
      "]].": 3251,
      "','": 3252,
      "boost": 3253,
      "doubles": 3254,
      "infuck": 3255,
      "myString": 3256,
      "left_": 3257,
      "LLONG_MAX": 3258,
      "mi2": 3259,
      "mi3": 3260,
      ".#.#.#.#.|": 3261,
      ".#.#.#.#.#.|": 3262,
      "acef": 3263,
      "npar": 3264,
      "Sec": 3265,
      "2222": 3266,
      "3238": 3267,
      "Min_": 3268,
      "cities": 3269,
      "jjj": 3270,
      "is_vowel": 3271,
      "Rest": 3272,
      "grid_size": 3273,
      "matching": 3274,
      ".#.#.|": 3275,
      ".#.#.#.|": 3276,
      ".#.#.#.#.#.#.|": 3277,
      ".#.#.#.#.#.#.#.|": 3278,
      ".#.#.#.#.#.#.#.#.|": 3279,
      ".#.#.#.#.#.#.#.#.#.|": 3280,
      "divisores": 3281,
      "timer": 3282,
      "nimpar": 3283,
      "pwr": 3284,
      "busca": 3285,
      "passeng": 3286,
      "jia": 3287,
      "walk": 3288,
      "ZerosOne": 3289,
      "']['": 3290,
      "Check": 3291,
      "spykeId": 3292,
      "5e5": 3293,
      "shapes": 3294,
      "ratio": 3295,
      "packs": 3296,
      "leave": 3297,
      "modexp": 3298,
      "\"<\"": 3299,
      "\">\"": 3300,
      "141592653589793238": 3301,
      "PhoneArray": 3302,
      "brainfuck": 3303,
      "horiz": 3304,
      "default": 3305,
      "maxExcl": 3306,
      "minCoin": 3307,
      "numPairs": 3308,
      "sheets": 3309,
      "passengers": 3310,
      "ZerosOnes": 3311,
      "*[": 3312,
      "LO": 3313,
      "N_": 3314,
      "Un": 3315,
      "]++,": 3316,
      "_index": 3317,
      "cCount": 3318,
      "cut": 3319,
      "g1": 3320,
      "ginal": 3321,
      "hc": 3322,
      "kir": 3323,
      "kom": 3324,
      "l_": 3325,
      "mCount": 3326,
      "nmax": 3327,
      "ostringstream": 3328,
      "press": 3329,
      "rfind": 3330,
      "td": 3331,
      "tex": 3332,
      "ual": 3333,
      "{{": 3334,
      "|-": 3335,
      "indp": 3336,
      "ifstream": 3337,
      "thir": 3338,
      "iskom": 3339,
      "six": 3340,
      "maap": 3341,
      "()])": 3342,
      "ansh": 3343,
      "end_x": 3344,
      "end_y": 3345,
      "str4": 3346,
      "debu": 3347,
      "chance": 3348,
      "sum0": 3349,
      "qui": 3350,
      "maxj": 3351,
      "maxCol": 3352,
      "maxRow": 3353,
      "maxWin": 3354,
      "them": 3355,
      "minj": 3356,
      "minCol": 3357,
      "minRow": 3358,
      "olnum": 3359,
      "lai": 3360,
      "ops": 3361,
      "flag3": 3362,
      "flag_a": 3363,
      "'),": 3364,
      "ctions": 3365,
      "doi": 3366,
      "dom": 3367,
      "ces": 3368,
      "contB": 3369,
      "start1": 3370,
      "start_x": 3371,
      "start_y": 3372,
      "\"|\"": 3373,
      "301": 3374,
      "1500": 3375,
      "got": 3376,
      "cost1": 3377,
      "cost2": 3378,
      "actual": 3379,
      "prevr": 3380,
      "distinct": 3381,
      "\"-\";": 3382,
      "arator": 3383,
      "comparator": 3384,
      "ic_": 3385,
      "bao1": 3386,
      "bao2": 3387,
      "shifted": 3388,
      "highest": 3389,
      "buck": 3390,
      "-|\";": 3391,
      "original": 3392,
      "norm": 3393,
      "blocka": 3394,
      "teams": 3395,
      "nilai": 3396,
      "so_f": 3397,
      "chodoi": 3398,
      "'^')": 3399,
      "previousGym": 3400,
      "dep_v": 3401,
      "'!')": 3402,
      "minimun": 3403,
      "indimpar": 3404,
      "dishes": 3405,
      "9223372036854775807LL": 3406,
      "holidays": 3407,
      "izq": 3408,
      "N_ZerosOnes": 3409,
      "texto": 3410,
      "indpar": 3411,
      "third": 3412,
      "so_far": 3413,
      "\"[]": 3414,
      "63": 3415,
      "Bl": 3416,
      "Fac": 3417,
      "Green": 3418,
      "Lunch": 3419,
      "Red": 3420,
      "Ty": 3421,
      "Test": 3422,
      "[-": 3423,
      "_function": 3424,
      "_prefix": 3425,
      "_chat": 3426,
      "aei": 3427,
      "d3": 3428,
      "d_": 3429,
      "ding": 3430,
      "eat": 3431,
      "fim": 3432,
      "face": 3433,
      "gif": 3434,
      "hot": 3435,
      "iv": 3436,
      "jo": 3437,
      "lb": 3438,
      "lay": 3439,
      "mcd": 3440,
      "n7": 3441,
      "o_": 3442,
      "over": 3443,
      "pres": 3444,
      "pha": 3445,
      "ru": 3446,
      "sq": 3447,
      "sb1": 3448,
      "sb2": 3449,
      "tl": 3450,
      "tpresent": 3451,
      "vc": 3452,
      "y0": 3453,
      "y4": 3454,
      "zing": 3455,
      "incre": 3456,
      "ination": 3457,
      "intp": 3458,
      "int_gcd": 3459,
      "rev": 3460,
      "anco": 3461,
      "tok": 3462,
      "seven": 3463,
      "selection": 3464,
      "era": 3465,
      "isvowel": 3466,
      "sir1": 3467,
      "sta1": 3468,
      "coun1": 3469,
      "coun2": 3470,
      "ma1": 3471,
      "set1": 3472,
      "sets": 3473,
      "strstr": 3474,
      "arr3": 3475,
      "expo": 3476,
      "ch3": 3477,
      "sumw": 3478,
      "loc_": 3479,
      "maxd": 3480,
      "maxle": 3481,
      "mind": 3482,
      "lenp": 3483,
      "trun": 3484,
      "moon": 3485,
      "countr": 3486,
      "nogover": 3487,
      "tempc": 3488,
      "anges": 3489,
      "adder": 3490,
      "gcd1": 3491,
      "tot3": 3492,
      "suf": 3493,
      "maps": 3494,
      "cond_": 3495,
      "10000000000": 3496,
      "index2": 3497,
      "202002": 3498,
      "totalday": 3499,
      "makeCh": 3500,
      "esPri": 3501,
      "colCount": 3502,
      "decreased": 3503,
      "rowCount": 3504,
      "row_start": 3505,
      "ha_chat": 3506,
      "']'": 3507,
      "go1": 3508,
      "powmod": 3509,
      "min_cost": 3510,
      "test_": 3511,
      "remove_": 3512,
      "removeZeros": 3513,
      "proble": 3514,
      "Times": 3515,
      "comp1": 3516,
      "2e3": 3517,
      "2e6": 3518,
      "score2": 3519,
      "upper_bound": 3520,
      "256": 3521,
      "Colours": 3522,
      "blanco": 3523,
      "malloc_": 3524,
      "c_x": 3525,
      "c_y": 3526,
      "hole": 3527,
      "144": 3528,
      "30010": 3529,
      "tramp": 3530,
      "tedad": 3531,
      "2019": 3532,
      "\"|#.#.#.#.#.#.#.#.#.#.#.|.|\"": 3533,
      "destination": 3534,
      "11111": 3535,
      "bill": 3536,
      "blockb": 3537,
      "banyakganjil": 3538,
      "ganjilterkecil": 3539,
      "gotoup": 3540,
      "gotodown": 3541,
      ".#.#.#.#.#.#.#.#.#.#.|.|\"": 3542,
      "pascal": 3543,
      "amounts": 3544,
      "first_points": 3545,
      "previousContest": 3546,
      "rtn": 3547,
      "negro": 3548,
      "finishx": 3549,
      "finishy": 3550,
      "shelves": 3551,
      "Joys": 3552,
      "Temps": 3553,
      "linha_chat": 3554,
      "bulbs": 3555,
      "FindLen": 3556,
      "ratios": 3557,
      "salir": 3558,
      "restaurantsLunch": 3559,
      "restaurantsJoys": 3560,
      "biaoji2": 3561,
      "biaoji1": 3562,
      "second_points": 3563,
      "enem": 3564,
      "0x7fffffff": 3565,
      ",./\";": 3566,
      "null": 3567,
      "amazing": 3568,
      "14159265358979323846": 3569,
      "debug": 3570,
      "Blue": 3571,
      "Factor": 3572,
      "aeiou": 3573,
      "ivmind": 3574,
      "phase": 3575,
      "tpresents": 3576,
      "makeChanges": 3577,
      "esPrimo": 3578,
      "restaurantsLunchTimes": 3579,
      "\"])": 3580,
      "\"))": 3581,
      "\"\")": 3582,
      "'/": 3583,
      "'{'": 3584,
      "-(": 3585,
      ".\\": 3586,
      "61": 3587,
      "All": 3588,
      "Lo": 3589,
      "Res": 3590,
      "a8": 3591,
      "ath": 3592,
      "adecimal": 3593,
      "bstart": 3594,
      "bulb": 3595,
      "e1": 3596,
      "gv": 3597,
      "god": 3598,
      "h8": 3599,
      "iEnd": 3600,
      "l4": 3601,
      "ld": 3602,
      "nnp": 3603,
      "nnl": 3604,
      "ostream": 3605,
      "pan": 3606,
      "patt": 3607,
      "rue": 3608,
      "sin": 3609,
      "sar": 3610,
      "tres": 3611,
      "tCon": 3612,
      "wc": 3613,
      "we": 3614,
      "ww": 3615,
      "zs": 3616,
      "inner": 3617,
      "printC": 3618,
      "strt": 3619,
      "exadecimal": 3620,
      "uest": 3621,
      "neare": 3622,
      "losp": 3623,
      "losn": 3624,
      "besar": 3625,
      "tiga": 3626,
      "lag": 3627,
      "vec2": 3628,
      "ature": 3629,
      "added": 3630,
      "inputs": 3631,
      "getAns": 3632,
      "getChar": 3633,
      "mapper": 3634,
      "]]--;": 3635,
      "cale": 3636,
      "last_": 3637,
      "lastSol": 3638,
      "viii": 3639,
      "(\"-": 3640,
      "(\"\");": 3641,
      "allA": 3642,
      "mic": 3643,
      "mark1": 3644,
      "'.',": 3645,
      "iii": 3646,
      "istream": 3647,
      "score1": 3648,
      "_bacterias": 3649,
      "pick": 3650,
      "c_number": 3651,
      "OfM": 3652,
      "triangle": 3653,
      "woch": 3654,
      "crunt": 3655,
      "cyc": 3656,
      "habe": 3657,
      "Left": 3658,
      "Root": 3659,
      "'}')": 3660,
      "b_number": 3661,
      "cur_res": 3662,
      "contador_bacterias": 3663,
      "'>')": 3664,
      "four_sum": 3665,
      "javab": 3666,
      "qiu": 3667,
      "wheniEnd": 3668,
      "borrow": 3669,
      "FromLeft": 3670,
      "Union": 3671,
      "bucket": 3672,
      "tConOven": 3673,
      "nearest": 3674,
      "lastSoldier": 3675,
      "crunt_State": 3676,
      "wheniEndFromLeft": 3677,
      "\"()": 3678,
      ")'": 3679,
      "012345": 3680,
      "370": 3681,
      "440": 3682,
      "500000": 3683,
      "95": 3684,
      "ASE": 3685,
      "City": 3686,
      "DP": 3687,
      "Dis": 3688,
      "FA": 3689,
      "FB": 3690,
      "IO": 3691,
      "LONG_MAX": 3692,
      "QA": 3693,
      "Qu": 3694,
      "Rn": 3695,
      "WBWBW": 3696,
      "Y1": 3697,
      "Y2": 3698,
      "_pop": 3699,
      "__b": 3700,
      "_post": 3701,
      "asum": 3702,
      "aes": 3703,
      "ates": 3704,
      "bf": 3705,
      "bsum": 3706,
      "bnew": 3707,
      "bacterias": 3708,
      "cer": 3709,
      "cnew": 3710,
      "cmin": 3711,
      "gc": 3712,
      "gir": 3713,
      "ight": 3714,
      "iwen": 3715,
      "kg": 3716,
      "kw": 3717,
      "kind": 3718,
      "lcp": 3719,
      "n00": 3720,
      "q_post": 3721,
      "rg": 3722,
      "rate": 3723,
      "s5": 3724,
      "sle": 3725,
      "tlen": 3726,
      "tp3": 3727,
      "t_b": 3728,
      "t_a": 3729,
      "tfingers": 3730,
      "uo": 3731,
      "usive": 3732,
      "uno": 3733,
      "uil": 3734,
      "utive": 3735,
      "v4": 3736,
      "wl": 3737,
      "xa": 3738,
      "zuo": 3739,
      "in_": 3740,
      "inse": 3741,
      "anc": 3742,
      "anst": 3743,
      "anses": 3744,
      "seed": 3745,
      "seive": 3746,
      "lev": 3747,
      "fors": 3748,
      "isA": 3749,
      "isl": 3750,
      "isv": 3751,
      "ison": 3752,
      "++];": 3753,
      "println": 3754,
      "matr": 3755,
      "choo": 3756,
      "size_m": 3757,
      "string1": 3758,
      "string_": 3759,
      "loc1": 3760,
      "loc2": 3761,
      "quit": 3762,
      "maxC": 3763,
      "maxLen": 3764,
      "mpu": 3765,
      "byte": 3766,
      "terminate": 3767,
      "teaten": 3768,
      "rol": 3769,
      "consec": 3770,
      "cntint": 3771,
      "charsum": 3772,
      "numD": 3773,
      "numStar": 3774,
      "noop": 3775,
      "noteaten": 3776,
      "modpow": 3777,
      "boy": 3778,
      "s11": 3779,
      "it1": 3780,
      "s22": 3781,
      "lowest": 3782,
      "assigning": 3783,
      "1e15": 3784,
      "cos": 3785,
      "outt": 3786,
      "curl": 3787,
      "edits": 3788,
      "getwin": 3789,
      "getNum": 3790,
      "vocale": 3791,
      "starCount": 3792,
      "diamond": 3793,
      "mapOf": 3794,
      "100011": 3795,
      "1050": 3796,
      "name1": 3797,
      "last_time": 3798,
      "605": 3799,
      "upd": 3800,
      "epTime": 3801,
      "all_": 3802,
      "winC": 3803,
      "nextz": 3804,
      "nextprev": 3805,
      "fib": 3806,
      "aramic": 3807,
      "2000000000": 3808,
      "iterations": 3809,
      "lower_bound": 3810,
      "min_n": 3811,
      "dig1": 3812,
      "NumOf": 3813,
      "zerocnt": 3814,
      "grou": 3815,
      "Init": 3816,
      "istOven": 3817,
      "uppercase": 3818,
      "pop_back": 3819,
      "cial": 3820,
      "height": 3821,
      "parame": 3822,
      "is_p": 3823,
      "(;;)": 3824,
      "helper": 3825,
      "BWB": 3826,
      "BWBWBWBW": 3827,
      "faces": 3828,
      "huiwen": 3829,
      "pasos": 3830,
      "boxes": 3831,
      "staus": 3832,
      "30005": 3833,
      "first_team": 3834,
      "casos": 3835,
      "study": 3836,
      "subtractions_solve": 3837,
      "fristOven": 3838,
      "Delete": 3839,
      "thisChar": 3840,
      "numerator": 3841,
      "8888": 3842,
      "fast_exp": 3843,
      "send_size": 3844,
      "Start": 3845,
      "tin_pop": 3846,
      "'|';": 3847,
      "anew": 3848,
      "best_score": 3849,
      "dfs2": 3850,
      "1000000000000000005": 3851,
      "calc_subtractions_div": 3852,
      "Votes": 3853,
      "sequence": 3854,
      "comparison": 3855,
      "catur": 3856,
      "\"***\";": 3857,
      "Calc": 3858,
      "trunc": 3859,
      "'/'": 3860,
      "0123456789": 3861,
      "CityCode": 3862,
      "Quantity": 3863,
      "WBWBWBWB": 3864,
      "__buil": 3865,
      "girl": 3866,
      "sleepTime": 3867,
      "insect": 3868,
      "anstemp": 3869,
      "choose": 3870,
      "consecutive": 3871,
      "DeleteIt": 3872,
      "tin_popcount": 3873,
      "1000000000000000005LL": 3874,
      "__builtin_popcount": 3875,
      "'];": 3876,
      "('\\": 3877,
      "4e": 3878,
      "AL": 3879,
      "Li": 3880,
      "Long": 3881,
      "LIM": 3882,
      "Other": 3883,
      "SZ": 3884,
      "Sor": 3885,
      "_0": 3886,
      "_val": 3887,
      "a5": 3888,
      "a6": 3889,
      "ass": 3890,
      "ami": 3891,
      "awal": 3892,
      "blen": 3893,
      "impar": 3894,
      "kid": 3895,
      "lane": 3896,
      "mc1": 3897,
      "mc2": 3898,
      "nk": 3899,
      "opr": 3900,
      "r4": 3901,
      "sf": 3902,
      "shit": 3903,
      "srt": 3904,
      "vw": 3905,
      "vaa": 3906,
      "yFound": 3907,
      "rela": 3908,
      "isFound": 3909,
      "alen": 3910,
      "strgro": 3911,
      "demx": 3912,
      "demy": 3913,
      "delete": 3914,
      "arr4": 3915,
      "]['": 3916,
      "ex1": 3917,
      "sumeven": 3918,
      "sumodd": 3919,
      "maxJ": 3920,
      "lines": 3921,
      "104": 3922,
      "termina": 3923,
      "minD": 3924,
      "mov1": 3925,
      "mov2": 3926,
      "nod": 3927,
      "notes": 3928,
      "asser": 3929,
      "flat": 3930,
      "lenght": 3931,
      "ida": 3932,
      "itung": 3933,
      "ating": 3934,
      "0000000": 3935,
      "curDay": 3936,
      "dic": 3937,
      "firstPointer": 3938,
      "prepend": 3939,
      "checks": 3940,
      "disc": 3941,
      "solution": 3942,
      "paint": 3943,
      "last_stripe": 3944,
      "1222": 3945,
      "gos": 3946,
      "wins": 3947,
      "prevI": 3948,
      "empat": 3949,
      "max_mode": 3950,
      "'-');": 3951,
      "scorea": 3952,
      "5002": 3953,
      "scoreb": 3954,
      "(':": 3955,
      "malyFound": 3956,
      "s_size": 3957,
      "supply": 3958,
      "blocks": 3959,
      "blocked": 3960,
      "works": 3961,
      "sum_fingers": 3962,
      "DashaCount": 3963,
      "MashaCount": 3964,
      "XXL": 3965,
      "hush": 3966,
      "years": 3967,
      "feature": 3968,
      "divisor2": 3969,
      "army1": 3970,
      "army2": 3971,
      "fast_io": 3972,
      "'!'": 3973,
      "'|'": 3974,
      "ulate": 3975,
      "anomalyFound": 3976,
      "isTrue": 3977,
      "Total": 3978,
      "\"=\"": 3979,
      "ALPH": 3980,
      "Limak": 3981,
      "amigos": 3982,
      "relax": 3983,
      "assert": 3984,
      "max_mode_val": 3985,
      ")]++;": 3986,
      ".#.|.|)\"": 3987,
      ".#.|.|\"": 3988,
      "2nd": 3989,
      "49": 3990,
      "59": 3991,
      "7f": 3992,
      "87": 3993,
      "Ai": 3994,
      "Am": 3995,
      "Au": 3996,
      "Break": 3997,
      "Big": 3998,
      "CT": 3999,
      "Case": 4000,
      "CASE": 4001,
      "Dig": 4002,
      "Gap": 4003,
      "Limon": 4004,
      "Ncoins": 4005,
      "Pi": 4006,
      "Pur": 4007,
      "S68": 4008,
      "Zarr": 4009,
      "[--": 4010,
      "_or": 4011,
      "_on": 4012,
      "_end": 4013,
      "_cnt": 4014,
      "_no": 4015,
      "_mod": 4016,
      "_at": 4017,
      "_number": 4018,
      "_idx": 4019,
      "_level": 4020,
      "aw": 4021,
      "aset": 4022,
      "aexc": 4023,
      "bcount": 4024,
      "bshu": 4025,
      "bexc": 4026,
      "cf": 4027,
      "cted": 4028,
      "dhur": 4029,
      "fn": 4030,
      "fcount": 4031,
      "f_b": 4032,
      "fpb": 4033,
      "hou": 4034,
      "hand": 4035,
      "hla": 4036,
      "hame": 4037,
      "itri": 4038,
      "iones": 4039,
      "ization": 4040,
      "ities": 4041,
      "jv": 4042,
      "jhame": 4043,
      "ky": 4044,
      "lunch": 4045,
      "mj": 4046,
      "mq": 4047,
      "mz": 4048,
      "nut": 4049,
      "pum": 4050,
      "pple": 4051,
      "pkt": 4052,
      "rtr": 4053,
      "range": 4054,
      "tg": 4055,
      "tn": 4056,
      "ttwo": 4057,
      "uts": 4058,
      "wb": 4059,
      "wee": 4060,
      "x3f3f3f3f": 4061,
      "x_1": 4062,
      "yo": 4063,
      "z2": 4064,
      "}};": 4065,
      "inclu": 4066,
      "recc": 4067,
      "any": 4068,
      "ifprime": 4069,
      "toPur": 4070,
      "onal": 4071,
      "forward": 4072,
      "thn": 4073,
      "isD": 4074,
      "istrue": 4075,
      "islower": 4076,
      "isHome": 4077,
      "isitri": 4078,
      "sir2": 4079,
      "sibil": 4080,
      "arx": 4081,
      "ara1": 4082,
      "ando": 4083,
      "clen": 4084,
      "ve1": 4085,
      "ansy": 4086,
      "alana": 4087,
      "ofelements": 4088,
      "dead": 4089,
      "arrb": 4090,
      "sume": 4091,
      "nected": 4092,
      "newk": 4093,
      "newnut": 4094,
      "maxk": 4095,
      "maxNum": 4096,
      "maxfather": 4097,
      "maxgro": 4098,
      "maxJoy": 4099,
      "maxvote": 4100,
      "arena": 4101,
      "mpo": 4102,
      "mpow": 4103,
      "109": 4104,
      "tep": 4105,
      "minstring": 4106,
      "minid": 4107,
      "minador": 4108,
      "mininc": 4109,
      "cons": 4110,
      "consume": 4111,
      "connected": 4112,
      "absent": 4113,
      "bef": 4114,
      "tit": 4115,
      "tivo": 4116,
      "lat": 4117,
      "numbs": 4118,
      "numofelements": 4119,
      "op1": 4120,
      "op2": 4121,
      "opqr": 4122,
      "mohi": 4123,
      "momo": 4124,
      "moes": 4125,
      "countt": 4126,
      "nomer": 4127,
      "ashu": 4128,
      "acity": 4129,
      "mean": 4130,
      "meio": 4131,
      "flaga": 4132,
      "flage": 4133,
      "flagee": 4134,
      "greatest": 4135,
      "gee": 4136,
      "bohla": 4137,
      "itm": 4138,
      "ital": 4139,
      "pod": 4140,
      "pot1": 4141,
      "input1": 4142,
      "fun1": 4143,
      "))))": 4144,
      "sign1": 4145,
      "sign2": 4146,
      "lowar": 4147,
      "apest": 4148,
      "cont_": 4149,
      "control": 4150,
      "curs": 4151,
      "curlen": 4152,
      "mx3": 4153,
      "getans": 4154,
      "getPos": 4155,
      "getFactor": 4156,
      "getZarr": 4157,
      "antTemps": 4158,
      "succ": 4159,
      "star_count": 4160,
      "MAX2": 4161,
      "direcc": 4162,
      "firstOn": 4163,
      "cheapest": 4164,
      "mny": 4165,
      "mnth": 4166,
      "mnopqr": 4167,
      "mapa": 4168,
      "mapp": 4169,
      "pred": 4170,
      "ili": 4171,
      "subs": 4172,
      "second_p": 4173,
      "totalSec": 4174,
      "name2": 4175,
      "iterating": 4176,
      "esto": 4177,
      "pause": 4178,
      "lastm": 4179,
      "MODUL": 4180,
      "row_end": 4181,
      "uper": 4182,
      "defghi": 4183,
      "maximumValue": 4184,
      "ices": 4185,
      "1000009": 4186,
      "ndmny": 4187,
      "mius": 4188,
      "mark0": 4189,
      "mark_idx": 4190,
      "winA": 4191,
      "winB": 4192,
      "wincandidate": 4193,
      "\"-\"": 4194,
      "0x3f3f3f3f3f3f3f3f": 4195,
      "taka": 4196,
      ".#.#.#.#.#.|.|)\"": 4197,
      ".#.#.#.#.#.|.|\"": 4198,
      ".#.#.#.#.|.|\"": 4199,
      ".#.#.#.#.|.|)\"": 4200,
      "perRow": 4201,
      "max_v": 4202,
      "max_tmp": 4203,
      "max_joy": 4204,
      "max_depth": 4205,
      "datt": 4206,
      "dataa": 4207,
      "200009": 4208,
      "inici": 4209,
      "min_p": 4210,
      "teste": 4211,
      "testcases": 4212,
      "pect": 4213,
      "multiset": 4214,
      "currgcd": 4215,
      "sai": 4216,
      "who": 4217,
      "currentans": 4218,
      "istantTemps": 4219,
      "bah": 4220,
      "fastio": 4221,
      "capacity": 4222,
      "capital": 4223,
      "pict": 4224,
      "ciel": 4225,
      "medal": 4226,
      "secnumbs": 4227,
      ".#.#.#.|.|)\"": 4228,
      ".#.#.#.|.|\"": 4229,
      ".#.#.|.|\"": 4230,
      ".#.#.|.|)\"": 4231,
      ".#.#.#.#.#.#.#.|.|)\"": 4232,
      ".#.#.#.#.#.#.#.|.|\"": 4233,
      ".#.#.#.#.#.#.|.|\"": 4234,
      ".#.#.#.#.#.#.|.|)\"": 4235,
      ".#.#.#.#.#.#.#.#.#.|.|)\"": 4236,
      ".#.#.#.#.#.#.#.#.#.|.|\"": 4237,
      ".#.#.#.#.#.#.#.#.|.|\"": 4238,
      ".#.#.#.#.#.#.#.#.|.|)\"": 4239,
      "nak": 4240,
      "|)\";": 4241,
      "offset": 4242,
      "offers": 4243,
      "off_or": 4244,
      "polje": 4245,
      "alt_prefix": 4246,
      "tml": 4247,
      "1111111": 4248,
      "reqrec": 4249,
      "vowels": 4250,
      "diagonal": 4251,
      "XXS": 4252,
      "XXXS": 4253,
      "sideMoves": 4254,
      "tambah": 4255,
      ".#.#.#.#.#.#.#.#.#.#.|.|)\"": 4256,
      "jklmnopqr": 4257,
      "kiu": 4258,
      "ToP": 4259,
      "n_i": 4260,
      "n_j": 4261,
      "total_shel": 4262,
      "maxName": 4263,
      "dot_at": 4264,
      "LCA": 4265,
      "comando": 4266,
      "menorB": 4267,
      "menorW": 4268,
      "numOfTest": 4269,
      "find_prime": 4270,
      "find_par": 4271,
      "\"|.|)": 4272,
      "a_post": 4273,
      "wallet": 4274,
      "stuvw": 4275,
      "c0c0": 4276,
      "xyz": 4277,
      "14159265359": 4278,
      "chrColor": 4279,
      "numerador": 4280,
      "denominador": 4281,
      "leaves": 4282,
      "difference1": 4283,
      "second_team": 4284,
      "number_list": 4285,
      "abcdefghi": 4286,
      "combSort": 4287,
      "ada_di": 4288,
      "f_name": 4289,
      "faktori": 4290,
      "verticalMoves": 4291,
      "secretaryNum": 4292,
      "secretary_number": 4293,
      "lasth": 4294,
      "Names": 4295,
      "get_prime": 4296,
      "u_d": 4297,
      "shoes": 4298,
      "kill": 4299,
      "ontal": 4300,
      "Diamond": 4301,
      "phnum": 4302,
      "getNextGap": 4303,
      "left_cn": 4304,
      "horizontal": 4305,
      "problems": 4306,
      "sinoutput": 4307,
      "string_int": 4308,
      "Otherwise": 4309,
      "assistantTemps": 4310,
      "Amount": 4311,
      "BreakTime": 4312,
      "Cases": 4313,
      "S686": 4314,
      "dhurr": 4315,
      "house": 4316,
      "jhamela": 4317,
      "lunchBreakTime": 4318,
      "week": 4319,
      "toPurchase": 4320,
      "isitright": 4321,
      "sibilities": 4322,
      "bohlam": 4323,
      "getPossibilities": 4324,
      "getFactorization": 4325,
      "direcciones": 4326,
      "MODULO": 4327,
      "perRowColor": 4328,
      "inicio": 4329,
      "off_or_on": 4330,
      "diagonal_char": 4331,
      "jklmnopqrstuvw": 4332,
      "total_shelf_": 4333,
      "numOfTestCases": 4334,
      "abcdefghijklmnopqrstuvw": 4335,
      "abcdefghijklmnopqrstuvwxyz": 4336,
      "\"];": 4337,
      "5000000": 4338,
      ">('": 4339,
      "Even": 4340,
      "SS": 4341,
      "]]);": 4342,
      "_num": 4343,
      "_do": 4344,
      "_word": 4345,
      "ave": 4346,
      "dasha": 4347,
      "gon": 4348,
      "gtw": 4349,
      "gers": 4350,
      "gdc": 4351,
      "ib": 4352,
      "iled": 4353,
      "ised": 4354,
      "lis": 4355,
      "mret": 4356,
      "marr": 4357,
      "mil": 4358,
      "nq": 4359,
      "rount": 4360,
      "sisa": 4361,
      "sRead": 4362,
      "ttem": 4363,
      "uti": 4364,
      "wong": 4365,
      "reme": 4366,
      "recur": 4367,
      "force": 4368,
      "mash": 4369,
      "expect": 4370,
      "sumback": 4371,
      "sum_n": 4372,
      "maxV": 4373,
      "maxt": 4374,
      "maxcol": 4375,
      "maxrow": 4376,
      "maxWord": 4377,
      "term": 4378,
      "minp": 4379,
      "minodd": 4380,
      "minTime": 4381,
      "1004": 4382,
      "tiemp": 4383,
      "trone": 4384,
      "])]++;": 4385,
      "id1": 4386,
      "itself": 4387,
      "ked": 4388,
      "followed": 4389,
      "mna": 4390,
      "mnb": 4391,
      "nowl": 4392,
      "plus1": 4393,
      "evensum": 4394,
      "']')": 4395,
      "pending": 4396,
      "infint64_t": 4397,
      "going": 4398,
      "leftnum": 4399,
      "leftPreSum": 4400,
      "marked": 4401,
      "rightPreSum": 4402,
      "oddsum": 4403,
      "extreme": 4404,
      "fff1": 4405,
      "fff2": 4406,
      "winc": 4407,
      "winm": 4408,
      "minimal": 4409,
      "tests": 4410,
      "Maxa": 4411,
      "prob": 4412,
      "gra": 4413,
      "msk": 4414,
      "raised": 4415,
      "inpp": 4416,
      "showpoint": 4417,
      "dir2": 4418,
      "alphabe": 4419,
      "tem_max": 4420,
      "tabule": 4421,
      "infinity": 4422,
      "single": 4423,
      "brute_": 4424,
      "months": 4425,
      "\"|#.#.#.#.#.#.#.#.#.#.#.|.|": 4426,
      "\"|#.#.#.#.#.#.#.#.#.#.#.|.|)": 4427,
      "333": 4428,
      "XXXL": 4429,
      "nxt": 4430,
      "pagesRead": 4431,
      "'<'": 4432,
      "numOfteams": 4433,
      "drinks": 4434,
      "acum0": 4435,
      "acumx": 4436,
      "caso1": 4437,
      "cur_speed": 4438,
      "to_mod": 4439,
      "shelb": 4440,
      "shela": 4441,
      "\"|#.......................|": 4442,
      "Goals": 4443,
      "exe_A": 4444,
      "exe_B": 4445,
      "|#.#.#.#.#.#.#.#.#.#.#.|.|)": 4446,
      "succe": 4447,
      "duplicate": 4448,
      "revStr": 4449,
      "sufmax": 4450,
      "(':')": 4451,
      "lista": 4452,
      "util": 4453,
      "masha": 4454,
      "tabuleiro": 4455,
      "brute_force": 4456,
      "\"++": 4457,
      "#.......................|": 4458,
      "(++": 4459,
      "01": 4460,
      "1_2": 4461,
      "365": 4462,
      "4000": 4463,
      "50000": 4464,
      "62": 4465,
      "620": 4466,
      "7370": 4467,
      "955": 4468,
      "924": 4469,
      "BS": 4470,
      "Bd": 4471,
      "Bu": 4472,
      "C7": 4473,
      "CK": 4474,
      "Cc": 4475,
      "CLO": 4476,
      "En": 4477,
      "Gas": 4478,
      "Hour": 4479,
      "LONG_": 4480,
      "Mid": 4481,
      "Mat": 4482,
      "Mul": 4483,
      "Mcost": 4484,
      "NP": 4485,
      "Rb": 4486,
      "Small": 4487,
      "Stone": 4488,
      "S_P": 4489,
      "TA": 4490,
      "Vcost": 4491,
      "_SE": 4492,
      "_color": 4493,
      "az": 4494,
      "area": 4495,
      "aend": 4496,
      "ach": 4497,
      "aPri": 4498,
      "aTy": 4499,
      "bz": 4500,
      "bro": 4501,
      "bound": 4502,
      "bdiv": 4503,
      "bhor": 4504,
      "bark": 4505,
      "cans": 4506,
      "cstart": 4507,
      "caten": 4508,
      "db": 4509,
      "dn": 4510,
      "dCount": 4511,
      "dna": 4512,
      "draw": 4513,
      "equ": 4514,
      "eid": 4515,
      "etime": 4516,
      "gtr": 4517,
      "gas": 4518,
      "hish": 4519,
      "i3": 4520,
      "ix": 4521,
      "iy": 4522,
      "ivb": 4523,
      "kd": 4524,
      "kmin": 4525,
      "kuda": 4526,
      "lk": 4527,
      "lu": 4528,
      "lumn": 4529,
      "mine": 4530,
      "mcnt": 4531,
      "mit": 4532,
      "mbi": 4533,
      "mbs": 4534,
      "nf": 4535,
      "nj": 4536,
      "nice": 4537,
      "p10": 4538,
      "rand": 4539,
      "ral": 4540,
      "rcont": 4541,
      "rht": 4542,
      "sL": 4543,
      "smoves": 4544,
      "sched": 4545,
      "t4": 4546,
      "tj": 4547,
      "tHome": 4548,
      "uu": 4549,
      "ucont": 4550,
      "van": 4551,
      "vct": 4552,
      "wat": 4553,
      "wak": 4554,
      "xcost": 4555,
      "ycost": 4556,
      "zent": 4557,
      "|#.......................|": 4558,
      "inum": 4559,
      "instr": 4560,
      "inverse": 4561,
      "rel": 4562,
      "repe": 4563,
      "requi": 4564,
      "enc": 4565,
      "oric": 4566,
      "lekc": 4567,
      "forb": 4568,
      "er1_2": 4569,
      "isve": 4570,
      "isIn": 4571,
      "isited": 4572,
      "isvalid": 4573,
      "isSub": 4574,
      "sid": 4575,
      "sii": 4576,
      "streak": 4577,
      "prize": 4578,
      "ma2": 4579,
      "couting": 4580,
      "ums": 4581,
      "ansj": 4582,
      "anso": 4583,
      "endi": 4584,
      "endj": 4585,
      "setIt": 4586,
      "ment_P": 4587,
      "crest": 4588,
      "chI": 4589,
      "chk": 4590,
      "sum4": 4591,
      "sumo": 4592,
      "sumtime": 4593,
      "sumpar": 4594,
      "mainvector": 4595,
      "main_str": 4596,
      "sizebul": 4597,
      "maxP": 4598,
      "maxb": 4599,
      "maxh": 4600,
      "maxer": 4601,
      "maxid": 4602,
      "maxindex": 4603,
      "maxdiff": 4604,
      "maxsuff": 4605,
      "lineTime": 4606,
      "minute": 4607,
      "minMat": 4608,
      "ros": 4609,
      "room": 4610,
      "concaten": 4611,
      "lenA": 4612,
      "cntd": 4613,
      "cntm": 4614,
      "valu": 4615,
      "valfin": 4616,
      "1003": 4617,
      "1009": 4618,
      "resses": 4619,
      "tias": 4620,
      "ticiones": 4621,
      "late": 4622,
      "chara": 4623,
      "numhours": 4624,
      "mot": 4625,
      "assigned": 4626,
      "flagB": 4627,
      "flag_b": 4628,
      "tempa": 4629,
      "tempb": 4630,
      "tempSame": 4631,
      "boss": 4632,
      "failed": 4633,
      "fatias": 4634,
      "();)": 4635,
      "identi": 4636,
      "itros": 4637,
      "pot2": 4638,
      "pod1": 4639,
      "creates": 4640,
      "adivb": 4641,
      "s2L": 4642,
      "input_1": 4643,
      "dp2": 4644,
      "dpn": 4645,
      "addresses": 4646,
      "1e12": 4647,
      "ulty": 4648,
      "tota": 4649,
      "totCc": 4650,
      "getPr": 4651,
      "tator": 4652,
      "tavan": 4653,
      "stars": 4654,
      "dip": 4655,
      "firstSum": 4656,
      "mn_a": 4657,
      "100050": 4658,
      "indG": 4659,
      "10000005": 4660,
      "100000000000": 4661,
      "1000000000000": 4662,
      "indefin": 4663,
      "substrings": 4664,
      "secondPointer": 4665,
      "indexG": 4666,
      "indexT": 4667,
      "cambi": 4668,
      "collumn": 4669,
      "colums": 4670,
      "lastSum": 4671,
      "plans": 4672,
      "601": 4673,
      "diffic": 4674,
      "upLetter": 4675,
      "find_max": 4676,
      "viy": 4677,
      "bit1": 4678,
      "bit2": 4679,
      "verted": 4680,
      "1000002": 4681,
      "1000004": 4682,
      "myC": 4683,
      "itely": 4684,
      "day_count": 4685,
      "minib": 4686,
      "miniw": 4687,
      "1844": 4688,
      "2000000": 4689,
      "200000000": 4690,
      "min_dist": 4691,
      "min_idx": 4692,
      "min_discount": 4693,
      "idxa": 4694,
      "idxb": 4695,
      "pear": 4696,
      "auxl": 4697,
      "eraseN": 4698,
      "rest_money": 4699,
      "proc": 4700,
      "bic": 4701,
      "zeroes": 4702,
      "currentJoy": 4703,
      "\"+------------------------+\\": 4704,
      "downLetter": 4705,
      "48620": 4706,
      "letterx": 4707,
      "like": 4708,
      "252": 4709,
      "raices": 4710,
      "high1": 4711,
      "high2": 4712,
      "parity": 4713,
      "1440": 4714,
      "needPre": 4715,
      "3005": 4716,
      "smlr": 4717,
      "item_time": 4718,
      "dir1": 4719,
      "dirx": 4720,
      "diry": 4721,
      "99999999999": 4722,
      "tempr": 4723,
      "log_": 4724,
      "'(',": 4725,
      "270": 4726,
      "nao_": 4727,
      "|)\\": 4728,
      "offset2": 4729,
      "ER_SE": 4730,
      "\"?\\": 4731,
      "yeet": 4732,
      "team1": 4733,
      "1000000010": 4734,
      "stone_color": 4735,
      "1615": 4736,
      "delta": 4737,
      "9696": 4738,
      "ToGo": 4739,
      "n_end": 4740,
      "lucky_": 4741,
      "first_p": 4742,
      "tuu": 4743,
      "rotate1": 4744,
      "falta": 4745,
      "cadena": 4746,
      "numberOfRest": 4747,
      "spectator": 4748,
      "avai": 4749,
      "caso2": 4750,
      "cur_amt": 4751,
      "\"|.|\"": 4752,
      "\"|.|\\": 4753,
      "\"|.|)\"": 4754,
      "player3": 4755,
      "floorToGo": 4756,
      "67440": 4757,
      "nslice": 4758,
      "12870": 4759,
      "Need_money": 4760,
      "isVisited": 4761,
      "armor": 4762,
      "3432": 4763,
      "nrsel": 4764,
      "ivement_P": 4765,
      "prefix_function": 4766,
      "mintime": 4767,
      "INF_INT": 4768,
      "INF_LL": 4769,
      "INF_ULL": 4770,
      "merge_sort": 4771,
      "number_of_": 4772,
      "tttttttt": 4773,
      "enemy": 4774,
      "bvoric": 4775,
      "sumimpar": 4776,
      "LastCo": 4777,
      "remnut": 4778,
      "takeoffMin": 4779,
      "takeoffHour": 4780,
      "occur": 4781,
      "particp": 4782,
      "dari": 4783,
      "yiti": 4784,
      "not_found": 4785,
      "boostIO": 4786,
      "jiati": 4787,
      "minCoinValue": 4788,
      "kiri": 4789,
      "gotValue": 4790,
      "third_p": 4791,
      "d_u": 4792,
      "join": 4793,
      "layer1_2": 4794,
      "selectionSort": 4795,
      "rgt": 4796,
      "isAtHome": 4797,
      "\"|.|)\\": 4798,
      "militros": 4799,
      "tiempo": 4800,
      "\"|#.#.#.#.#.#.#.#.#.#.#.|.|\";": 4801,
      "\"|#.#.#.#.#.#.#.#.#.#.#.|.|)\";": 4802,
      "\"|#.......................|\";": 4803,
      "success": 4804,
      "7370955": 4805,
      "CKS_P": 4806,
      "CLOCKS_P": 4807,
      "Multi": 4808,
      "achivement_P": 4809,
      "aPrices": 4810,
      "aTypes": 4811,
      "bdiva": 4812,
      "bhoric": 4813,
      "hishab": 4814,
      "mitad": 4815,
      "niceWord": 4816,
      "schedule": 4817,
      "watched": 4818,
      "repeticiones": 4819,
      "lekcje": 4820,
      "isInn": 4821,
      "minMatch": 4822,
      "identical": 4823,
      "indefinitely": 4824,
      "cambio": 4825,
      "difficulty": 4826,
      "184467440": 4827,
      "needPrezent": 4828,
      "nao_usa": 4829,
      "ER_SEC": 4830,
      "numberOfRestaurants": 4831,
      "number_of_lessons": 4832,
      "73709551615": 4833,
      "CLOCKS_PER_SEC": 4834,
      "achivement_Player1_2": 4835,
      "18446744073709551615": 4836,
      "(--": 4837,
      "('-');": 4838,
      "74": 4839,
      "8e": 4840,
      "91": 4841,
      "Ama": 4842,
      "Awin": 4843,
      "BG": 4844,
      "BR": 4845,
      "Bwin": 4846,
      "Bstep": 4847,
      "BIT": 4848,
      "Mi": 4849,
      "N4": 4850,
      "N7": 4851,
      "RC": 4852,
      "Sr": 4853,
      "Sal": 4854,
      "Salt": 4855,
      "TR": 4856,
      "Wstep": 4857,
      "__": 4858,
      "_res": 4859,
      "_edge": 4860,
      "_front": 4861,
      "bnt": 4862,
      "cor": 4863,
      "cval": 4864,
      "cs2": 4865,
      "dsum": 4866,
      "dsk": 4867,
      "d_count": 4868,
      "ef": 4869,
      "eu": 4870,
      "ect": 4871,
      "eCount": 4872,
      "echo": 4873,
      "fc": 4874,
      "fp": 4875,
      "fth": 4876,
      "guest": 4877,
      "hmn": 4878,
      "hred": 4879,
      "ither": 4880,
      "i_ans": 4881,
      "jmn": 4882,
      "lent": 4883,
      "lsh": 4884,
      "mb": 4885,
      "mba": 4886,
      "nin": 4887,
      "nol": 4888,
      "nPos": 4889,
      "oCount": 4890,
      "pmin": 4891,
      "qn": 4892,
      "rts": 4893,
      "sarr": 4894,
      "sch": 4895,
      "scan": 4896,
      "tre": 4897,
      "text": 4898,
      "uc": 4899,
      "x5": 4900,
      "yx": 4901,
      "inst": 4902,
      "reque": 4903,
      "les": 4904,
      "lex": 4905,
      "isOne": 4906,
      "stp": 4907,
      "stay": 4908,
      "ansA": 4909,
      "ansB": 4910,
      "end_time": 4911,
      "det": 4912,
      "arrOc": 4913,
      "arrSor": 4914,
      "ntc": 4915,
      "creq": 4916,
      "ch4": 4917,
      "chm": 4918,
      "chn": 4919,
      "sumD": 4920,
      "sumt": 4921,
      "new_": 4922,
      "newint": 4923,
      "size2": 4924,
      "local": 4925,
      "maxlevel": 4926,
      "maxVolume": 4927,
      "106": 4928,
      "minB": 4929,
      "minw": 4930,
      "minsteps": 4931,
      "minute_": 4932,
      "roll": 4933,
      "con2": 4934,
      "converted": 4935,
      "tick": 4936,
      "counta2": 4937,
      "meet": 4938,
      "unit": 4939,
      "id0": 4940,
      "bools": 4941,
      "ck2": 4942,
      "ck3": 4943,
      "ck4": 4944,
      "cov": 4945,
      "ce2": 4946,
      "contCh": 4947,
      "out_edge": 4948,
      "curans": 4949,
      "imn": 4950,
      "mxi": 4951,
      "mxj": 4952,
      "mxpos": 4953,
      "mx_a": 4954,
      "result1": 4955,
      "result2": 4956,
      "result3": 4957,
      "totd": 4958,
      "back1": 4959,
      "die_": 4960,
      "mni": 4961,
      "mnj": 4962,
      "prer": 4963,
      "sub_res": 4964,
      "nowsafe": 4965,
      "dist1": 4966,
      "totalc": 4967,
      "totals": 4968,
      "sum1_str": 4969,
      "esNumber": 4970,
      "1000000005": 4971,
      "plNumber": 4972,
      "vii": 4973,
      "spect": 4974,
      "numbers_": 4975,
      "maximo": 4976,
      "miax": 4977,
      "intergers": 4978,
      "nextprime": 4979,
      "max_cnt": 4980,
      "max_res": 4981,
      "max_num": 4982,
      "min_value": 4983,
      "min_price": 4984,
      "min_dishes": 4985,
      "min_requi": 4986,
      "pemba": 4987,
      "ttl": 4988,
      "MaxN": 4989,
      "MaxDo": 4990,
      "saida": 4991,
      "wnr": 4992,
      "movesA": 4993,
      "movesB": 4994,
      "baack": 4995,
      "Minv": 4996,
      "Mininum": 4997,
      "cipan": 4998,
      "c_cast": 4999,
      "remain_do": 5000,
      "300300": 5001,
      "valido": 5002,
      "visited_index": 5003,
      "women": 5004,
      "floats": 5005,
      "limits": 5006,
      "visit1": 5007,
      "ortance": 5008,
      "cntone": 5009,
      "num_of_": 5010,
      "sum_A": 5011,
      "sum_D": 5012,
      "sum_u": 5013,
      "sum_white": 5014,
      "Roz1": 5015,
      "n_parti": 5016,
      "total_cov": 5017,
      "tuju": 5018,
      "finala": 5019,
      "mishkaCounter": 5020,
      "oldai": 5021,
      "segment": 5022,
      "chrisCounter": 5023,
      "ances": 5024,
      "static_cast": 5025,
      "numeric_": 5026,
      "'>',": 5027,
      "right1": 5028,
      "right2": 5029,
      "satuan": 5030,
      "exe_C": 5031,
      "sum_black": 5032,
      "importance": 5033,
      "count_dig": 5034,
      "Max_X": 5035,
      "Max_Y": 5036,
      "ada_out_edge": 5037,
      "Move_": 5038,
      "minoesNumber": 5039,
      "isTwo": 5040,
      ".|.|\"": 5041,
      "nextPrimeNum": 5042,
      "duplicates": 5043,
      "prodm": 5044,
      "udah": 5045,
      "cun1": 5046,
      "cun2": 5047,
      "Min_X": 5048,
      "Min_Y": 5049,
      "contBi": 5050,
      "originalsquare": 5051,
      "\"[]\")": 5052,
      "gifts": 5053,
      "incremen": 5054,
      "token": 5055,
      "strt_time": 5056,
      "last_visited_index": 5057,
      "occurances": 5058,
      "Amaze": 5059,
      "request": 5060,
      "arrOccur": 5061,
      "arrSorted": 5062,
      "die_roll": 5063,
      "numbers_total": 5064,
      "min_require": 5065,
      "pembagi": 5066,
      "MaxDominoesNumber": 5067,
      "cipantes": 5068,
      "remain_domino": 5069,
      "num_of_cakes": 5070,
      "n_participantes": 5071,
      "tujuh": 5072,
      "numeric_limits": 5073,
      ")]);": 5074,
      ",(": 5075,
      "131": 5076,
      "310": 5077,
      "41": 5078,
      "433": 5079,
      "58": 5080,
      "512": 5081,
      "680": 5082,
      "811": 5083,
      "9LL": 5084,
      "925": 5085,
      "AG": 5086,
      "Bo": 5087,
      "BFS": 5088,
      "Criba": 5089,
      "Du": 5090,
      "FL": 5091,
      "Free": 5092,
      "Four": 5093,
      "JQ": 5094,
      "KA": 5095,
      "Lb": 5096,
      "Ln": 5097,
      "MP": 5098,
      "Mark": 5099,
      "Nold": 5100,
      "Ov": 5101,
      "Open": 5102,
      "PE": 5103,
      "TB": 5104,
      "Table": 5105,
      "Tree": 5106,
      "Try": 5107,
      "TJQ": 5108,
      "Ull": 5109,
      "Vuel": 5110,
      "X3": 5111,
      "Zero": 5112,
      "]();": 5113,
      "_v": 5114,
      "_rea": 5115,
      "_than": 5116,
      "_base": 5117,
      "_Sum": 5118,
      "_sieve": 5119,
      "_so_far": 5120,
      "a0": 5121,
      "ah": 5122,
      "amm": 5123,
      "away": 5124,
      "b0": 5125,
      "bx": 5126,
      "bol": 5127,
      "cent": 5128,
      "cul": 5129,
      "cube": 5130,
      "dst": 5131,
      "ders": 5132,
      "duck": 5133,
      "dung": 5134,
      "e2": 5135,
      "evalu": 5136,
      "fA": 5137,
      "fB": 5138,
      "fh": 5139,
      "fq": 5140,
      "fra": 5141,
      "flights": 5142,
      "gl": 5143,
      "gm": 5144,
      "gum": 5145,
      "gmax": 5146,
      "gmin": 5147,
      "hd": 5148,
      "his": 5149,
      "ians": 5150,
      "ides": 5151,
      "jb": 5152,
      "jg": 5153,
      "jor": 5154,
      "jmx": 5155,
      "kp": 5156,
      "ku": 5157,
      "kv": 5158,
      "kle": 5159,
      "kt3": 5160,
      "lan": 5161,
      "m4": 5162,
      "mg": 5163,
      "mv": 5164,
      "mans": 5165,
      "mmp": 5166,
      "mmo": 5167,
      "msh": 5168,
      "mgcd": 5169,
      "mmap": 5170,
      "mmi": 5171,
      "ncl": 5172,
      "nap": 5173,
      "na2": 5174,
      "nIn": 5175,
      "nik": 5176,
      "nold": 5177,
      "nhap": 5178,
      "pon": 5179,
      "pcount": 5180,
      "pons": 5181,
      "pjg": 5182,
      "qing": 5183,
      "qsort": 5184,
      "q_count": 5185,
      "rb": 5186,
      "rf": 5187,
      "rp": 5188,
      "rCriba": 5189,
      "spl": 5190,
      "tf": 5191,
      "tSum": 5192,
      "uion": 5193,
      "vt": 5194,
      "vst": 5195,
      "vash": 5196,
      "v_c": 5197,
      "won": 5198,
      "war": 5199,
      "xie": 5200,
      "x_char": 5201,
      "xu_": 5202,
      "yy1": 5203,
      "yy2": 5204,
      "zcost": 5205,
      "zeros": 5206,
      "inindex": 5207,
      "inates": 5208,
      "refre": 5209,
      "rexxx": 5210,
      "reSame": 5211,
      "another": 5212,
      "tos": 5213,
      "tobin": 5214,
      "toInt": 5215,
      "see": 5216,
      "section": 5217,
      "sections": 5218,
      "ency": 5219,
      "only": 5220,
      "<<=": 5221,
      "leg": 5222,
      "lemon": 5223,
      "reach": 5224,
      "iss": 5225,
      "isalpha": 5226,
      "isLucky": 5227,
      "isimon": 5228,
      "isNold": 5229,
      "sires": 5230,
      "simon": 5231,
      "simu": 5232,
      "arc": 5233,
      "arreg": 5234,
      "arZeros": 5235,
      "coupons": 5236,
      "prof": 5237,
      "printed": 5238,
      "math": 5239,
      "mas1": 5240,
      "clm": 5241,
      "clare": 5242,
      "reads": 5243,
      "urut": 5244,
      "alindrome": 5245,
      "ofinter": 5246,
      "leta": 5247,
      "entime": 5248,
      "sete": 5249,
      "setTree": 5250,
      "strun": 5251,
      "strng": 5252,
      "depend": 5253,
      "deleta": 5254,
      "arr_i": 5255,
      "exe": 5256,
      "exl": 5257,
      "sumC": 5258,
      "sumM": 5259,
      "sumu": 5260,
      "sumPos": 5261,
      "sumtp": 5262,
      "net": 5263,
      "highi": 5264,
      "size_x": 5265,
      "size_y": 5266,
      "loye": 5267,
      "maxSe": 5268,
      "maxbi": 5269,
      "maxba": 5270,
      "maxSol": 5271,
      "maxTemp": 5272,
      "mpp": 5273,
      "108": 5274,
      "1024": 5275,
      "minTemp": 5276,
      "rot2": 5277,
      "rodu": 5278,
      "rotation": 5279,
      "con1": 5280,
      "lenB": 5281,
      "lenc": 5282,
      "lename": 5283,
      "cnts": 5284,
      "cnt_1": 5285,
      "olver": 5286,
      "putit": 5287,
      "bel": 5288,
      "resolver": 5289,
      "tipo": 5290,
      "tric_": 5291,
      "numFour": 5292,
      "])));": 5293,
      "mover": 5294,
      "nominator": 5295,
      "ask": 5296,
      "asli": 5297,
      "mesto": 5298,
      "mejor": 5299,
      "putprime": 5300,
      "union": 5301,
      "gede": 5302,
      "ge_Sum": 5303,
      "modx": 5304,
      "'));": 5305,
      "temp0": 5306,
      "tempsum": 5307,
      "temps2": 5308,
      "s12": 5309,
      "it2": 5310,
      "poss": 5311,
      "crearCriba": 5312,
      "adas": 5313,
      "input2": 5314,
      "inputArr": 5315,
      "func1": 5316,
      "shob": 5317,
      "var1": 5318,
      "var2": 5319,
      "((((": 5320,
      "signal": 5321,
      "apel": 5322,
      "changed": 5323,
      "1e17": 5324,
      "ck_0": 5325,
      "tmpA": 5326,
      "tmpB": 5327,
      "tmpx": 5328,
      "tmpy": 5329,
      "coe": 5330,
      "coding": 5331,
      "cek1": 5332,
      "contM": 5333,
      "contV": 5334,
      "ultsel": 5335,
      "kedua": 5336,
      "curX": 5337,
      "curY": 5338,
      "curMin": 5339,
      "cur_max": 5340,
      "cur_min": 5341,
      "cur_ans": 5342,
      "maxnn": 5343,
      "imx": 5344,
      "mxd": 5345,
      "mxl": 5346,
      "mxn": 5347,
      "mxcommon": 5348,
      "totAll": 5349,
      "getsum": 5350,
      "tama": 5351,
      "antisimon": 5352,
      "vocal": 5353,
      "suda": 5354,
      "MAXX": 5355,
      "3f3f3f": 5356,
      "firstb": 5357,
      "firstw": 5358,
      "start_": 5359,
      "start_index": 5360,
      "mndist": 5361,
      "mn_b": 5362,
      "1000100": 5363,
      "cond_2": 5364,
      "ards": 5365,
      "check_": 5366,
      "checkdouble": 5367,
      "inserts": 5368,
      "index_s": 5369,
      "nowR": 5370,
      "runn": 5371,
      "dif1": 5372,
      "esVo": 5373,
      "casires": 5374,
      "115": 5375,
      "cty": 5376,
      "n1a": 5377,
      "125": 5378,
      "movei": 5379,
      "26433": 5380,
      "hah": 5381,
      "evenCount": 5382,
      "502": 5383,
      "5010": 5384,
      "5050": 5385,
      "swaps": 5386,
      "n2a": 5387,
      "usadas": 5388,
      "deflt": 5389,
      "number1": 5390,
      "verif": 5391,
      "ordinates": 5392,
      "mySum": 5393,
      "goRest": 5394,
      "0x3f3f3f": 5395,
      "users": 5396,
      "username": 5397,
      "mi_n": 5398,
      "otherday": 5399,
      "mark2": 5400,
      "win1": 5401,
      "win2": 5402,
      "100500": 5403,
      "steps1": 5404,
      "dist_": 5405,
      "dist_sum": 5406,
      "dayAmount": 5407,
      "employe": 5408,
      "pertama": 5409,
      "max_chars": 5410,
      "max_ratio": 5411,
      "filename": 5412,
      "mmm": 5413,
      "'#',": 5414,
      "wordLen": 5415,
      "wordVolume": 5416,
      "Noofinter": 5417,
      "min_pos": 5418,
      "min_time": 5419,
      "min_xy": 5420,
      "64680": 5421,
      "peeps": 5422,
      "removeDu": 5423,
      "removeZero": 5424,
      "aux3": 5425,
      "\"+\"": 5426,
      "\"+\")": 5427,
      "'-'": 5428,
      "currMod": 5429,
      "remd": 5430,
      "remv": 5431,
      "remdiv": 5432,
      "prom": 5433,
      "zeroNum": 5434,
      "zeroRe": 5435,
      "CountOfM": 5436,
      "current_stripe": 5437,
      "moves_so_far": 5438,
      "reverseStr": 5439,
      "Increment": 5440,
      "2e18": 5441,
      "liz": 5442,
      "velNum": 5443,
      "flr": 5444,
      "bag": 5445,
      "bach": 5446,
      "fastexpo": 5447,
      "bestb": 5448,
      "bestw": 5449,
      "bestVotes": 5450,
      "cion": 5451,
      "c_max": 5452,
      "remainders": 5453,
      "OfContest": 5454,
      "is_valid": 5455,
      "is_vocal": 5456,
      "prise": 5457,
      "NumberOfContest": 5458,
      "isPrimeRoot": 5459,
      "men1": 5460,
      "biggest": 5461,
      "tables": 5462,
      "accept": 5463,
      "reflection": 5464,
      "secs": 5465,
      "secOv": 5466,
      "visit2": 5467,
      "2000001": 5468,
      "2000005": 5469,
      "s_read": 5470,
      "Doaa": 5471,
      "card1": 5472,
      "card2": 5473,
      "cardOn": 5474,
      "654": 5475,
      "akmal": 5476,
      "4064680": 5477,
      "block_rea": 5478,
      "team2": 5479,
      "turned": 5480,
      "sum_col": 5481,
      "sum_row": 5482,
      "samey": 5483,
      "banyakpear": 5484,
      "banyaklemon": 5485,
      "banyakapel": 5486,
      ".#.#.#.#.#.#.#.#.#.#.|.|": 5487,
      "ffffff": 5488,
      "3e2": 5489,
      "30001": 5490,
      "clockwise": 5491,
      "total_cost": 5492,
      "weights": 5493,
      "'^'": 5494,
      "Cont": 5495,
      "first_not_": 5496,
      "pages_read": 5497,
      "process": 5498,
      "'<',": 5499,
      "cilik": 5500,
      "more_than": 5501,
      "xaydung": 5502,
      "find_first_not_": 5503,
      "mayor": 5504,
      "cur_pos": 5505,
      "hora": 5506,
      "player1": 5507,
      "excusive": 5508,
      "floorNum": 5509,
      "Declare": 5510,
      "slg": 5511,
      "chrish": 5512,
      "programm": 5513,
      "binarycoding": 5514,
      "5e3": 5515,
      "1039LL": 5516,
      "desks": 5517,
      "VI2": 5518,
      "VI3": 5519,
      "VI4": 5520,
      "sumdn": 5521,
      "mergeSort": 5522,
      "given1": 5523,
      "given2": 5524,
      "given3": 5525,
      "444": 5526,
      "counter_A": 5527,
      "counter_D": 5528,
      "people_cnt": 5529,
      "replacement": 5530,
      "Page_Sum": 5531,
      "minmum": 5532,
      "zzzzzzzzzzzz": 5533,
      "calc_subtractions_mod": 5534,
      "limes": 5535,
      "samex": 5536,
      "jwbn": 5537,
      "FFFF": 5538,
      "wynik": 5539,
      "discountQuantity": 5540,
      "plyrs": 5541,
      "BBBBBBBB": 5542,
      "sequenti": 5543,
      "6789TJQ": 5544,
      "mnts": 5545,
      "shovelNum": 5546,
      "3F3F3F3F": 5547,
      "Subseq": 5548,
      "Getint": 5549,
      "darVuel": 5550,
      "peso": 5551,
      "isPalindrome": 5552,
      "minCoins": 5553,
      "l_name": 5554,
      "contBa": 5555,
      "originalState": 5556,
      "cond_3": 5557,
      "cond_4": 5558,
      "remove_zero": 5559,
      "remove_zeros": 5560,
      "malloc_1": 5561,
      "malloc_2": 5562,
      "enemy1": 5563,
      "enemy2": 5564,
      "1415926535897932384626433": 5565,
      "Result": 5566,
      "athome": 5567,
      "bstartc": 5568,
      "allAreSame": 5569,
      "\"()\")": 5570,
      "unos": 5571,
      "in_out": 5572,
      "isluck": 5573,
      "quitarZeros": 5574,
      "all_present": 5575,
      "NumOfFree": 5576,
      "groups": 5577,
      "parametric_": 5578,
      "Calculate": 5579,
      "122220": 5580,
      "7f7f": 5581,
      "Digit": 5582,
      "aws": 5583,
      "DiamondCount": 5584,
      "myCards": 5585,
      "LastCommo": 5586,
      "18446744073709551615Ull": 5587,
      "tren": 5588,
      "textVolume": 5589,
      "8111039LL": 5590,
      "9254064680": 5591,
      "FLAG": 5592,
      "_sieve_size": 5593,
      "evaluate": 5594,
      "kpk": 5595,
      "kuang": 5596,
      "kvbox": 5597,
      "lanes": 5598,
      "nInputs": 5599,
      "noldbach": 5600,
      "qingkuang": 5601,
      "split": 5602,
      "vashya": 5603,
      "warOpen": 5604,
      "xu_ly": 5605,
      "refrence": 5606,
      "sectionsleft": 5607,
      "isNoldPrime": 5608,
      "simulate": 5609,
      "arreglo": 5610,
      "profits": 5611,
      "strunity": 5612,
      "dependency": 5613,
      "highid": 5614,
      "maxSections": 5615,
      "roduce": 5616,
      "rotations": 5617,
      "temps2add": 5618,
      "sudah": 5619,
      "esVocal": 5620,
      "employee": 5621,
      "Noofintersectionsleft": 5622,
      "removeDuplica": 5623,
      "zeroRemover": 5624,
      "CountOfMoney": 5625,
      "NumberOfContests": 5626,
      "secOventime": 5627,
      "cardOnTable": 5628,
      "block_reached": 5629,
      "more_than1": 5630,
      "find_first_not_of": 5631,
      "programming": 5632,
      "6789TJQKA": 5633,
      "darVuelta": 5634,
      "14159265358979323846264338": 5635,
      "parametric_search": 5636,
      "CalculatePrimes": 5637,
      "LastCommom": 5638,
      "92540646808111039LL": 5639,
      "\"--": 5640,
      "'{": 5641,
      ")*": 5642,
      "*)": 5643,
      "1E": 5644,
      "361": 5645,
      "4th": 5646,
      ":;": 5647,
      "Hand": 5648,
      "Line": 5649,
      "Lim": 5650,
      "Neg": 5651,
      "Net": 5652,
      "Over": 5653,
      "Sw": 5654,
      "Wand": 5655,
      "Wsp": 5656,
      "_g": 5657,
      "_ways": 5658,
      "bon": 5659,
      "bord": 5660,
      "c47": 5661,
      "cOdd": 5662,
      "c74": 5663,
      "cordinates": 5664,
      "ela": 5665,
      "eded": 5666,
      "fro": 5667,
      "fcounter": 5668,
      "here": 5669,
      "ial": 5670,
      "ila": 5671,
      "iao": 5672,
      "jt": 5673,
      "jvb": 5674,
      "kis": 5675,
      "kie": 5676,
      "l7": 5677,
      "lle": 5678,
      "nsum": 5679,
      "nstep": 5680,
      "ncasos": 5681,
      "ost": 5682,
      "ocial": 5683,
      "psum": 5684,
      "phi": 5685,
      "pct": 5686,
      "psed": 5687,
      "r7": 5688,
      "rk": 5689,
      "rTotal": 5690,
      "sst": 5691,
      "scre": 5692,
      "sad": 5693,
      "sour": 5694,
      "sOfM": 5695,
      "tun": 5696,
      "tstudy": 5697,
      "vA": 5698,
      "vB": 5699,
      "v_g": 5700,
      "xr": 5701,
      "xiao": 5702,
      "zi": 5703,
      "znstep": 5704,
      "|\\": 5705,
      "intlen": 5706,
      "ory": 5707,
      "lect": 5708,
      "levl": 5709,
      "forth": 5710,
      "fortun": 5711,
      "eration": 5712,
      "ished": 5713,
      "isRoot": 5714,
      "site": 5715,
      "simmin": 5716,
      "arith": 5717,
      "++(": 5718,
      "prv": 5719,
      "clr": 5720,
      "ve2": 5721,
      "()][": 5722,
      "()];": 5723,
      "ents": 5724,
      "entere": 5725,
      "++);": 5726,
      "ex2": 5727,
      "exchange": 5728,
      "sum5": 5729,
      "sumj": 5730,
      "summax": 5731,
      "sumNeg": 5732,
      "uesta": 5733,
      "newsquare": 5734,
      "maxSw": 5735,
      "declara": 5736,
      "minas": 5737,
      "minLimon": 5738,
      "minSal": 5739,
      "len_b": 5740,
      "cntup": 5741,
      "oldest": 5742,
      "punk": 5743,
      "lasto": 5744,
      "tran": 5745,
      "])];": 5746,
      "count0": 5747,
      "flas": 5748,
      "unfortun": 5749,
      "gear": 5750,
      "length_r": 5751,
      "modn": 5752,
      "')))": 5753,
      "tempo": 5754,
      "bos": 5755,
      "veces": 5756,
      "aps": 5757,
      "acters": 5758,
      "tmp_ans": 5759,
      "cursum": 5760,
      "tott": 5761,
      "super": 5762,
      "MAXM": 5763,
      "first1": 5764,
      "firstLine": 5765,
      "indx1": 5766,
      "indx2": 5767,
      "cond_1": 5768,
      "',')": 5769,
      "second1": 5770,
      "named": 5771,
      "timeOf": 5772,
      "collect": 5773,
      "patok": 5774,
      "paila": 5775,
      "ct3": 5776,
      "ct4": 5777,
      "ctf": 5778,
      "lastans": 5779,
      "lasteven": 5780,
      "spent": 5781,
      "spare": 5782,
      "memcpy": 5783,
      "memory": 5784,
      "countersum": 5785,
      "mys": 5786,
      "allB": 5787,
      "\"#\\": 5788,
      "interger": 5789,
      "winCounter": 5790,
      "step2": 5791,
      "mul1": 5792,
      "mul2": 5793,
      "answer1": 5794,
      "answer2": 5795,
      "max_points": 5796,
      "max_votes": 5797,
      "idx_b": 5798,
      "aaa": 5799,
      "ambos": 5800,
      "'*',": 5801,
      "tsocial": 5802,
      "compute": 5803,
      "Info": 5804,
      "finished": 5805,
      "many": 5806,
      "canLim": 5807,
      "raznstep": 5808,
      "divN": 5809,
      "Column": 5810,
      "needTo": 5811,
      "MIN1": 5812,
      "MIN2": 5813,
      "cpt": 5814,
      "rats": 5815,
      "200025": 5816,
      "uniqueChar": 5817,
      "logarith": 5818,
      "respuesta": 5819,
      "num_unique": 5820,
      "either": 5821,
      "ould": 5822,
      "sievesize": 5823,
      "shuwei": 5824,
      "shuzi": 5825,
      "statements": 5826,
      "sum_l": 5827,
      "places": 5828,
      "social": 5829,
      "Roz2": 5830,
      "3e4": 5831,
      "Toats": 5832,
      "n_bytes": 5833,
      "choice": 5834,
      "total_med": 5835,
      "total_cup": 5836,
      "rotate3": 5837,
      "numOfNet": 5838,
      "numOfInfo": 5839,
      "numberOfMove": 5840,
      "fingers_ways": 5841,
      "QAQ_count": 5842,
      "playerState": 5843,
      "Ending": 5844,
      "fraction": 5845,
      "'>'": 5846,
      "best_candidate": 5847,
      "Firend": 5848,
      "srand": 5849,
      "indices": 5850,
      "Max_N": 5851,
      "|#.#.#.#.#.#.#.#.#.#.#.|.|": 5852,
      ")][(": 5853,
      "\"..|\\": 5854,
      "svr": 5855,
      "excluisve": 5856,
      "leavekid": 5857,
      "quick": 5858,
      "gift": 5859,
      "AllFirend": 5860,
      "noteaten_c": 5861,
      "noteaten_r": 5862,
      "cosine": 5863,
      "mapOfRow": 5864,
      "mapOfColumn": 5865,
      "4e7": 5866,
      "concatenate": 5867,
      "central": 5868,
      "belum": 5869,
      "OverAllFirend": 5870,
      "WandC": 5871,
      "bonus": 5872,
      "elapsed": 5873,
      "kiekis": 5874,
      "screen": 5875,
      "source": 5876,
      "sOfMili": 5877,
      "entered": 5878,
      "maxSwaps": 5879,
      "punkty": 5880,
      "lastodd": 5881,
      "unfortunate": 5882,
      "supercentral": 5883,
      "timeOfEnding": 5884,
      "needToUnion": 5885,
      "uniqueCharacters": 5886,
      "OverAllFirendsOfMili": 5887,
      "\"));": 5888,
      "*(": 5889,
      ".#.|.|": 5890,
      ".#.|.|)": 5891,
      "0ll": 5892,
      "320": 5893,
      "3rd": 5894,
      "43": 5895,
      "7_": 5896,
      "700": 5897,
      "82": 5898,
      "85": 5899,
      "92": 5900,
      "<\")": 5901,
      "Ad": 5902,
      "Abs": 5903,
      "CP": 5904,
      "Cou": 5905,
      "Cel": 5906,
      "Deg": 5907,
      "Dat": 5908,
      "Des": 5909,
      "EO": 5910,
      "Flag": 5911,
      "Game": 5912,
      "Guest": 5913,
      "Is": 5914,
      "Is_": 5915,
      "IOT": 5916,
      "KIOT": 5917,
      "Las": 5918,
      "Med": 5919,
      "Mtime": 5920,
      "Play": 5921,
      "Produce": 5922,
      "Run": 5923,
      "Range": 5924,
      "Rank": 5925,
      "Sa": 5926,
      "Sin": 5927,
      "Sqr": 5928,
      "Shap": 5929,
      "Tim": 5930,
      "TOO": 5931,
      "Tea": 5932,
      "VK": 5933,
      "Vtime": 5934,
      "Vest": 5935,
      "ZZ": 5936,
      "_in": 5937,
      "_NO": 5938,
      "_tmp": 5939,
      "_insert": 5940,
      "_top": 5941,
      "_ca": 5942,
      "_next": 5943,
      "_li": 5944,
      "_same": 5945,
      "_final": 5946,
      "_to_": 5947,
      "_search": 5948,
      "_replace": 5949,
      "_of_": 5950,
      "_taken": 5951,
      "_diagonal_char": 5952,
      "_7_": 5953,
      "ae": 5954,
      "ava": 5955,
      "ativo": 5956,
      "bm": 5957,
      "bac": 5958,
      "bat": 5959,
      "ba1": 5960,
      "black": 5961,
      "batt": 5962,
      "blag": 5963,
      "c8": 5964,
      "cu": 5965,
      "cpr": 5966,
      "cvis": 5967,
      "cus": 5968,
      "dk": 5969,
      "dv": 5970,
      "dans": 5971,
      "dnt": 5972,
      "dro": 5973,
      "dol": 5974,
      "dx2": 5975,
      "dy2": 5976,
      "d_1": 5977,
      "d_2": 5978,
      "eh": 5979,
      "ees": 5980,
      "ets": 5981,
      "f4": 5982,
      "ful": 5983,
      "flower": 5984,
      "foo": 5985,
      "font": 5986,
      "fTotal": 5987,
      "gre": 5988,
      "gth": 5989,
      "garr": 5990,
      "gol": 5991,
      "gb1": 5992,
      "gb2": 5993,
      "hr": 5994,
      "hs": 5995,
      "hen": 5996,
      "hay": 5997,
      "html": 5998,
      "ia": 5999,
      "ier": 6000,
      "ich": 6001,
      "ick": 6002,
      "ible": 6003,
      "icos": 6004,
      "kx": 6005,
      "kon": 6006,
      "kmp": 6007,
      "kount": 6008,
      "kpy": 6009,
      "knotes": 6010,
      "l3": 6011,
      "lv": 6012,
      "lal": 6013,
      "lend": 6014,
      "lcnt": 6015,
      "lnum": 6016,
      "lit": 6017,
      "linf": 6018,
      "lini": 6019,
      "lOdd": 6020,
      "lEven": 6021,
      "mceil": 6022,
      "nma": 6023,
      "na1": 6024,
      "naj": 6025,
      "nvotes": 6026,
      "ncandid": 6027,
      "nhack": 6028,
      "ote": 6029,
      "odp": 6030,
      "oct": 6031,
      "ogo": 6032,
      "pf": 6033,
      "pnt": 6034,
      "pout": 6035,
      "port": 6036,
      "phack": 6037,
      "q3": 6038,
      "qt": 6039,
      "qbe": 6040,
      "q_sort": 6041,
      "ran": 6042,
      "rcnt": 6043,
      "rnum": 6044,
      "rit": 6045,
      "rps": 6046,
      "sg": 6047,
      "sif": 6048,
      "sset": 6049,
      "slow": 6050,
      "slast": 6051,
      "sod": 6052,
      "slt": 6053,
      "tk": 6054,
      "tle": 6055,
      "tSin": 6056,
      "utt": 6057,
      "u_1": 6058,
      "u_2": 6059,
      "vid": 6060,
      "vir": 6061,
      "vvo": 6062,
      "vpoints": 6063,
      "x6": 6064,
      "xp": 6065,
      "xabs": 6066,
      "xx1": 6067,
      "xx2": 6068,
      "x_n": 6069,
      "x_2": 6070,
      "x_p": 6071,
      "x_level": 6072,
      "yp": 6073,
      "yabs": 6074,
      "yea": 6075,
      "yip": 6076,
      "y_1": 6077,
      "y_2": 6078,
      "y_char": 6079,
      "y_level": 6080,
      "z0": 6081,
      "zong": 6082,
      "zhi": 6083,
      "zli": 6084,
      "z_function": 6085,
      "{'^',": 6086,
      "rex": 6087,
      "re_top": 6088,
      "ifra": 6089,
      "ifier": 6090,
      "towhi": 6091,
      "todd": 6092,
      "toutt": 6093,
      "sele": 6094,
      "seica": 6095,
      "enco": 6096,
      "encont": 6097,
      "enerate": 6098,
      "le_max": 6099,
      "lemoes": 6100,
      "errl": 6101,
      "isu": 6102,
      "isint": 6103,
      "isum": 6104,
      "isgreater": 6105,
      "ision": 6106,
      "isLe": 6107,
      "isAns": 6108,
      "isCo": 6109,
      "isyu": 6110,
      "isBest": 6111,
      "outer": 6112,
      "stg": 6113,
      "stt": 6114,
      "stab": 6115,
      "stud": 6116,
      "st_taken": 6117,
      "stick": 6118,
      "prit": 6119,
      "printsp": 6120,
      "mas2": 6121,
      "mabs": 6122,
      "egativo": 6123,
      "intege": 6124,
      "ans4": 6125,
      "ans5": 6126,
      "ans6": 6127,
      "always": 6128,
      "ofm": 6129,
      "ofpoly": 6130,
      "ofinal": 6131,
      "returnAbs": 6132,
      "leted": 6133,
      "entry": 6134,
      "dec": 6135,
      "desc": 6136,
      "death": 6137,
      "witn": 6138,
      "arrx": 6139,
      "chal": 6140,
      "chok": 6141,
      "sumthing": 6142,
      "sumclock": 6143,
      "needed": 6144,
      "newS": 6145,
      "hir": 6146,
      "string2": 6147,
      "--])": 6148,
      "quat": 6149,
      "quant": 6150,
      "quantity": 6151,
      "maxsum": 6152,
      "maxx1": 6153,
      "maxim": 6154,
      "maxx2": 6155,
      "the_same": 6156,
      "tern": 6157,
      "tetr": 6158,
      "mink": 6159,
      "minu": 6160,
      "minsize": 6161,
      "minn1": 6162,
      "minn2": 6163,
      "minstep": 6164,
      "minus1": 6165,
      "minisum": 6166,
      "rot1": 6167,
      "rope": 6168,
      "rots": 6169,
      "len_s": 6170,
      "cntx": 6171,
      "cnty": 6172,
      "array_n": 6173,
      "array_size": 6174,
      "be_replace": 6175,
      "resC": 6176,
      "resL": 6177,
      "ressed": 6178,
      "reshal": 6179,
      "tira": 6180,
      "lasag": 6181,
      "tring": 6182,
      "tract": 6183,
      "trash": 6184,
      "charArray": 6185,
      "char_to_": 6186,
      "numC": 6187,
      "numL": 6188,
      "numW": 6189,
      "numero": 6190,
      "numTy": 6191,
      "numMed": 6192,
      "numShap": 6193,
      "ss1": 6194,
      "ss2": 6195,
      "ss3": 6196,
      "sson": 6197,
      "countl": 6198,
      "count_x": 6199,
      "count_1": 6200,
      "no1": 6201,
      "acke": 6202,
      "memo": 6203,
      "med1": 6204,
      "med2": 6205,
      "undos": 6206,
      "unhack": 6207,
      "],\"": 6208,
      "mod1": 6209,
      "modPow": 6210,
      "')),": 6211,
      "temp3": 6212,
      "tempCount": 6213,
      "temp_sum": 6214,
      "tempRange": 6215,
      "notation": 6216,
      "idx2": 6217,
      "pock": 6218,
      "attern": 6219,
      "create": 6220,
      "adofinal": 6221,
      "input_2": 6222,
      "sh1": 6223,
      "sh2": 6224,
      "should": 6225,
      "dodec": 6226,
      "angel": 6227,
      "change_in": 6228,
      "sortDes": 6229,
      "tmp3": 6230,
      "coA": 6231,
      "coB": 6232,
      "cek2": 6233,
      "cont_c": 6234,
      "gcdd": 6235,
      "gcdf": 6236,
      "gcdNum": 6237,
      "gcd_1": 6238,
      "curAn": 6239,
      "imula": 6240,
      "onemore": 6241,
      "mxs": 6242,
      "resultado": 6243,
      "resultadofinal": 6244,
      "totSum": 6245,
      "get_ans": 6246,
      "get_str": 6247,
      "getGo": 6248,
      "getRank": 6249,
      "100003": 6250,
      "suit": 6251,
      "vis_max": 6252,
      "vis_min": 6253,
      "MAX1": 6254,
      "dick": 6255,
      "firstDay": 6256,
      "mns": 6257,
      "mnind": 6258,
      "ind2": 6259,
      "indE": 6260,
      "indO": 6261,
      "indT": 6262,
      "y11": 6263,
      "t2sec": 6264,
      "]]]]": 6265,
      "primesize": 6266,
      "mid2": 6267,
      "checkDeg": 6268,
      "ilable": 6269,
      "rip": 6270,
      "rigth": 6271,
      "sub1": 6272,
      "sub2": 6273,
      "insercion": 6274,
      "disC": 6275,
      "disx": 6276,
      "disy": 6277,
      "distr": 6278,
      "totalMoves": 6279,
      "(!((": 6280,
      "esq": 6281,
      "esclusive": 6282,
      "ok1": 6283,
      "camino": 6284,
      "colSet": 6285,
      "colour": 6286,
      "colume": 6287,
      "wers": 6288,
      "ctMax": 6289,
      "ctMin": 6290,
      "sw1": 6291,
      "sw2": 6292,
      "sww": 6293,
      "rowe": 6294,
      "rowSet": 6295,
      "moveS": 6296,
      "maxx3": 6297,
      "haha": 6298,
      "2007": 6299,
      "upset": 6300,
      "updt": 6301,
      "finder": 6302,
      "findstep": 6303,
      "find_ans": 6304,
      "evenPos": 6305,
      "epi": 6306,
      "vict": 6307,
      "spic": 6308,
      "bitch": 6309,
      "number2": 6310,
      "numbers2": 6311,
      "numberofm": 6312,
      "mystr": 6313,
      "my_gcd": 6314,
      "myInt": 6315,
      "myPow": 6316,
      "goContest": 6317,
      "goGym": 6318,
      "els": 6319,
      "minn3": 6320,
      "user_num": 6321,
      "costToP": 6322,
      "mi1": 6323,
      "mius1": 6324,
      "interchange": 6325,
      "ffic": 6326,
      "prev_sum": 6327,
      "distl": 6328,
      "distress": 6329,
      "distressed": 6330,
      "\"-\")": 6331,
      ".#.#.#.#.|.|": 6332,
      ".#.#.#.#.#.|.|": 6333,
      ".#.#.#.#.#.|.|)": 6334,
      ".#.#.#.#.|.|)": 6335,
      "perm": 6336,
      "divides": 6337,
      "2000010": 6338,
      "lowerCount": 6339,
      "powm": 6340,
      "pow_base": 6341,
      "min_m": 6342,
      "min_max": 6343,
      "positivo": 6344,
      "pee": 6345,
      "takeStone": 6346,
      "ccion": 6347,
      "ttt": 6348,
      "matrex": 6349,
      "nph": 6350,
      "Maxn": 6351,
      "lll": 6352,
      "Search": 6353,
      "auxr": 6354,
      "resta": 6355,
      "twoPower": 6356,
      "tsd": 6357,
      "kachok": 6358,
      "reversed": 6359,
      "compote": 6360,
      "letter2": 6361,
      "letterx1": 6362,
      "angan": 6363,
      "limoes": 6364,
      "scores": 6365,
      "score_max": 6366,
      "upperCount": 6367,
      "poped": 6368,
      "ceiling": 6369,
      "fastMax": 6370,
      "fastMin": 6371,
      "'+';": 6372,
      "captin": 6373,
      "eting": 6374,
      "highnum": 6375,
      "squares": 6376,
      "bestIndex": 6377,
      "Colision": 6378,
      "parta": 6379,
      "is_possible": 6380,
      "judg": 6381,
      "keyur": 6382,
      "passCode": 6383,
      "banknotes": 6384,
      "freq1": 6385,
      "big_word": 6386,
      "cyka": 6387,
      "tons": 6388,
      "med3": 6389,
      "multiplying": 6390,
      "lim2": 6391,
      "route": 6392,
      "couner": 6393,
      "rowsDe": 6394,
      "temu": 6395,
      "afas": 6396,
      "logal": 6397,
      "travel": 6398,
      "traffic": 6399,
      ".#.#.|.|": 6400,
      ".#.#.#.|.|": 6401,
      ".#.#.#.|.|)": 6402,
      ".#.#.|.|)": 6403,
      "ppp": 6404,
      ".#.#.#.#.#.#.|.|": 6405,
      ".#.#.#.#.#.#.#.|.|": 6406,
      ".#.#.#.#.#.#.#.|.|)": 6407,
      ".#.#.#.#.#.#.|.|)": 6408,
      ".#.#.#.#.#.#.#.#.|.|": 6409,
      ".#.#.#.#.#.#.#.#.#.|.|": 6410,
      ".#.#.#.#.#.#.#.#.#.|.|)": 6411,
      ".#.#.#.#.#.#.#.#.|.|)": 6412,
      "listsize": 6413,
      "listprime": 6414,
      "divisible": 6415,
      "childs": 6416,
      "num_0": 6417,
      "num_1": 6418,
      "!^^\\": 6419,
      "cup2": 6420,
      "cup3": 6421,
      "ggg": 6422,
      "lices": 6423,
      "minusSum": 6424,
      "Answers": 6425,
      "Spent": 6426,
      "s_ip": 6427,
      "work2": 6428,
      "goodCel": 6429,
      "bracke": 6430,
      "contain8": 6431,
      "akhir": 6432,
      "nut2sec": 6433,
      "purchase": 6434,
      "111111": 6435,
      "405": 6436,
      "bilangan": 6437,
      "bincode": 6438,
      "obj": 6439,
      "some": 6440,
      "Solution": 6441,
      "actions": 6442,
      "side1": 6443,
      "Cost": 6444,
      "busy": 6445,
      ".#.#.#.#.#.#.#.#.#.#.|.|)": 6446,
      "biaozhi": 6447,
      "year_li": 6448,
      "writes": 6449,
      "boxees": 6450,
      "selves": 6451,
      "wasBest": 6452,
      "0000000000000000": 6453,
      "angleofpoly": 6454,
      "IntToP": 6455,
      "non_diagonal_char": 6456,
      "total_page": 6457,
      "total_drink": 6458,
      "first_row": 6459,
      "page_back": 6460,
      "rotate2": 6461,
      "dotNum": 6462,
      "dotted": 6463,
      "cell2": 6464,
      "sdVest": 6465,
      "wtf": 6466,
      "cycleSort": 6467,
      "waiter": 6468,
      "numOfGame": 6469,
      "coloana": 6470,
      "'[',": 6471,
      "_slices": 6472,
      "segundos": 6473,
      "haveNum": 6474,
      "haveBig": 6475,
      "haveSmall": 6476,
      "numberOfLucky": 6477,
      "b_4": 6478,
      "b_pos": 6479,
      "find_winner": 6480,
      "mayu": 6481,
      "casn": 6482,
      "codes": 6483,
      "ModPow": 6484,
      "a_4": 6485,
      "a_pos": 6486,
      "to_change": 6487,
      "to_lower": 6488,
      "to_upper": 6489,
      "to_be_replace": 6490,
      "player2": 6491,
      "player_1": 6492,
      "player_2": 6493,
      "stuff": 6494,
      "floorSqr": 6495,
      "done2": 6496,
      "300009": 6497,
      "factorial": 6498,
      "frap": 6499,
      "contador_final": 6500,
      "nbulb": 6501,
      "thislen": 6502,
      "AND": 6503,
      "dama": 6504,
      "just": 6505,
      "lste": 6506,
      "ev_no": 6507,
      "binary_search": 6508,
      "FindString": 6509,
      "search_NO": 6510,
      "possible_sum": 6511,
      "everything": 6512,
      "fourcount": 6513,
      "kata": 6514,
      "chatSec": 6515,
      "number_lucky_": 6516,
      "counter_left": 6517,
      "counter_right": 6518,
      "Words": 6519,
      "replaced_": 6520,
      "best_name": 6521,
      "dfs1": 6522,
      "array_positivo": 6523,
      "1000000000000000000": 6524,
      "zzzzzzzzzz": 6525,
      "lime_slices": 6526,
      "count_0": 6527,
      "\"<\\": 6528,
      "\">\\": 6529,
      "cityNo": 6530,
      "hoursSpent": 6531,
      "smallAns": 6532,
      "wynb": 6533,
      "wynw": 6534,
      "LastevenPos": 6535,
      "mltotal": 6536,
      "freefuel": 6537,
      "miss": 6538,
      "leafName": 6539,
      "get_free": 6540,
      "comparing": 6541,
      "mirrorup": 6542,
      "mirrorright": 6543,
      "killed": 6544,
      "buttons": 6545,
      "BestCou": 6546,
      "whiteAns": 6547,
      "left_rigth": 6548,
      "Checking": 6549,
      "actual_next": 6550,
      "selection_insert": 6551,
      "LoL": 6552,
      "Loses": 6553,
      "bulb_no": 6554,
      "triangleNumber": 6555,
      "certos": 6556,
      "in_amt": 6557,
      "all_rot": 6558,
      "NumOfWords": 6559,
      "group": 6560,
      "subtractions_solve_": 6561,
      "kids": 6562,
      "BigMod": 6563,
      "handle_max": 6564,
      "handels": 6565,
      "yolo": 6566,
      "mpoints": 6567,
      "mposite": 6568,
      "minid_b": 6569,
      "minid_a": 6570,
      "cont_lit": 6571,
      "cont_big_word": 6572,
      "ada_dia": 6573,
      "ada_dib": 6574,
      "total_shelf_cup": 6575,
      "total_shelf_medal": 6576,
      "alphabetical": 6577,
      "LONG_LONG_MAX": 6578,
      "isSubstring": 6579,
      "particpant1": 6580,
      "selectionSorting": 6581,
      "only_7_": 6582,
      "changedVotes": 6583,
      "dist_ch": 6584,
      "Continue": 6585,
      "sequential": 6586,
      "llega": 6587,
      "logarithm": 6588,
      "concatenated": 6589,
      "Data": 6590,
      "EOF": 6591,
      "Isprime": 6592,
      "Is_here": 6593,
      "KIOT_ca": 6594,
      "Lastodd": 6595,
      "Players": 6596,
      "ProduceCode": 6597,
      "TOOG": 6598,
      "Team": 6599,
      "available": 6600,
      "batas": 6601,
      "blackAns": 6602,
      "battle": 6603,
      "cup1": 6604,
      "dropout": 6605,
      "dollar": 6606,
      "greeting": 6607,
      "garrafas": 6608,
      "hayColision": 6609,
      "ichdama": 6610,
      "kpyto": 6611,
      "lala": 6612,
      "linie": 6613,
      "ncandidates": 6614,
      "ranki": 6615,
      "sifr": 6616,
      "tSinOven": 6617,
      "virus": 6618,
      "vvod": 6619,
      "yeah": 6620,
      "yippee": 6621,
      "zlicz": 6622,
      "towhid": 6623,
      "seleccion": 6624,
      "seica_gcd": 6625,
      "encoded": 6626,
      "isLesson": 6627,
      "isComposite": 6628,
      "isyuan": 6629,
      "students": 6630,
      "pritn": 6631,
      "descending": 6632,
      "quatro": 6633,
      "array_negativo": 6634,
      "reshala": 6635,
      "lasagna": 6636,
      "char_to_angle": 6637,
      "numType": 6638,
      "numMedal": 6639,
      "numShapes": 6640,
      "pockets": 6641,
      "shouldContinue": 6642,
      "cont_cifra": 6643,
      "curAng": 6644,
      "imulai": 6645,
      "getGood": 6646,
      "checkDegenerate": 6647,
      "spicifier": 6648,
      "costToPay": 6649,
      "takeStones": 6650,
      "rowsDeleted": 6651,
      "goodCell": 6652,
      "bracket": 6653,
      "purchaseQuantity": 6654,
      "year_limake": 6655,
      "angleofpolygon": 6656,
      "IntToPattern": 6657,
      "numOfGames": 6658,
      "haveBigLetter": 6659,
      "haveSmallLetter": 6660,
      "to_be_replaced": 6661,
      "floorSqrt": 6662,
      "search_NOK": 6663,
      "number_lucky_digit": 6664,
      "replaced_by": 6665,
      "BestCoupon": 6666,
      "cont_little": 6667,
      "only_7_4": 6668,
      "KIOT_camp": 6669,
      "LastoddPos": 6670,
      "\".......................|\"": 6671,
      "([": 6672,
      "(~": 6673,
      ",,": 6674,
      "-(-": 6675,
      ".;": 6676,
      "2999999999": 6677,
      "3d": 6678,
      "5th": 6679,
      "5100": 6680,
      "6th": 6681,
      "Bn": 6682,
      "Gdrink": 6683,
      "Mili": 6684,
      "Oper": 6685,
      "POW": 6686,
      "SP": 6687,
      "TRU": 6688,
      "[*": 6689,
      "_ab": 6690,
      "_loop": 6691,
      "_pow": 6692,
      "_sorted": 6693,
      "bd": 6694,
      "bn": 6695,
      "bp": 6696,
      "cEven": 6697,
      "dra": 6698,
      "ear": 6699,
      "fu": 6700,
      "gx": 6701,
      "gy": 6702,
      "glo": 6703,
      "ies": 6704,
      "npr": 6705,
      "oc1": 6706,
      "oc2": 6707,
      "tan": 6708,
      "ucl": 6709,
      "ush": 6710,
      "xth": 6711,
      "yans": 6712,
      "}}": 6713,
      "int32": 6714,
      "reopen": 6715,
      "reuse": 6716,
      "semi": 6717,
      "lel": 6718,
      "lean": 6719,
      "fori": 6720,
      "format": 6721,
      "throw": 6722,
      "reall": 6723,
      "ists": 6724,
      "istring": 6725,
      "++\"": 6726,
      "eger": 6727,
      "ready": 6728,
      "umulate": 6729,
      "()->": 6730,
      "ansmap": 6731,
      "ofstream": 6732,
      "setbit": 6733,
      "stri": 6734,
      "str_1": 6735,
      "str_0": 6736,
      "decal": 6737,
      "exists": 6738,
      "neither": 6739,
      "increments": 6740,
      "ined": 6741,
      "--]": 6742,
      "--];": 6743,
      "--\")": 6744,
      "their": 6745,
      "1011": 6746,
      "minc": 6747,
      "minGas": 6748,
      "olds": 6749,
      "abort": 6750,
      "1008": 6751,
      "being": 6752,
      "resul": 6753,
      "])))": 6754,
      "])),": 6755,
      "count_y": 6756,
      "great": 6757,
      "lengh": 6758,
      "')',": 6759,
      "NOT": 6760,
      "body": 6761,
      "s1len": 6762,
      "idx1": 6763,
      "it_sorted": 6764,
      "atan": 6765,
      "contin": 6766,
      "outTime": 6767,
      "one_loop": 6768,
      "100006": 6769,
      "]]];": 6770,
      "checkoutTime": 6771,
      "total1": 6772,
      "total2": 6773,
      "totalLimon": 6774,
      "totalSalt": 6775,
      "totalMili": 6776,
      "oka": 6777,
      "INFLL": 6778,
      "1200": 6779,
      "diffucl": 6780,
      "vie": 6781,
      "myFile": 6782,
      "150000": 6783,
      "ally": 6784,
      "LEN": 6785,
      "Make": 6786,
      "mulMod": 6787,
      "max_idx": 6788,
      "testCnt": 6789,
      "'*');": 6790,
      "removed": 6791,
      "subtracting": 6792,
      "digit1": 6793,
      "Inf": 6794,
      "Increase": 6795,
      "stolen": 6796,
      "canGas": 6797,
      "pop_front": 6798,
      "flush": 6799,
      "divid": 6800,
      "MINN": 6801,
      "is_it_sorted": 6802,
      "pri_num": 6803,
      "':';": 6804,
      "Rem": 6805,
      "crate": 6806,
      "ooi": 6807,
      "oolean": 6808,
      "hmr": 6809,
      "dimensions": 6810,
      "{\"\",": 6811,
      "s_pro": 6812,
      "passed": 6813,
      "calcula": 6814,
      "chocs": 6815,
      "writeln": 6816,
      "xor1": 6817,
      "rotate90": 6818,
      "MAX_SIZE": 6819,
      "MAX_LEN": 6820,
      "Statement": 6821,
      "Decrement": 6822,
      "normalize": 6823,
      "accumulate": 6824,
      "count_num": 6825,
      "count_now": 6826,
      "|#.#.#.#.#.#.#.#.#.#.#.|": 6827,
      ".|.|)\"": 6828,
      "0x3fffffff": 6829,
      "6666": 6830,
      "borne": 6831,
      "\"..\";": 6832,
      "Oddz": 6833,
      "\"[]\"": 6834,
      "seven_sum": 6835,
      "\"()\"": 6836,
      "including": 6837,
      "alphabeti": 6838,
      "8e16": 6839,
      "unitTime": 6840,
      "'{')": 6841,
      "quick_pow": 6842,
      "cont_little_word": 6843,
      "2999999999ll": 6844,
      "Operation": 6845,
      "POWER": 6846,
      "TRUE": 6847,
      "bnyak": 6848,
      "dragon": 6849,
      "global": 6850,
      "int32_t": 6851,
      "reallyans": 6852,
      "istringstream": 6853,
      "decalre": 6854,
      "resulf": 6855,
      "diffuclty": 6856
    },
    "merges": [
      [
        "i",
        "n"
      ],
      [
        "in",
        "t"
      ],
      [
        "r",
        "e"
      ],
      [
        "a",
        "n"
      ],
      [
        "i",
        "f"
      ],
      [
        "t",
        "o"
      ],
      [
        "s",
        "e"
      ],
      [
        "e",
        "n"
      ],
      [
        "o",
        "r"
      ],
      [
        "o",
        "n"
      ],
      [
        "<",
        "<"
      ],
      [
        "l",
        "e"
      ],
      [
        "f",
        "or"
      ],
      [
        "t",
        "h"
      ],
      [
        "e",
        "r"
      ],
      [
        "on",
        "g"
      ],
      [
        "re",
        "a"
      ],
      [
        "l",
        "ong"
      ],
      [
        "i",
        "s"
      ],
      [
        "o",
        "u"
      ],
      [
        ">",
        ">"
      ],
      [
        "s",
        "i"
      ],
      [
        "a",
        "r"
      ],
      [
        "s",
        "t"
      ],
      [
        "c",
        "ou"
      ],
      [
        "+",
        "+"
      ],
      [
        "p",
        "r"
      ],
      [
        "an",
        "d"
      ],
      [
        "l",
        "se"
      ],
      [
        "pr",
        "int"
      ],
      [
        "m",
        "a"
      ],
      [
        "e",
        "g"
      ],
      [
        "c",
        "l"
      ],
      [
        "e",
        "lse"
      ],
      [
        "int",
        "eg"
      ],
      [
        "integ",
        "er"
      ],
      [
        "cou",
        "t"
      ],
      [
        "rea",
        "d"
      ],
      [
        "u",
        "m"
      ],
      [
        "v",
        "e"
      ],
      [
        "0",
        "0"
      ],
      [
        "(",
        ")"
      ],
      [
        "an",
        "s"
      ],
      [
        "u",
        "r"
      ],
      [
        "a",
        "l"
      ],
      [
        "c",
        "in"
      ],
      [
        "o",
        "f"
      ],
      [
        "en",
        "d"
      ],
      [
        "=",
        "="
      ],
      [
        "re",
        "t"
      ],
      [
        "ur",
        "n"
      ],
      [
        "ret",
        "urn"
      ],
      [
        "le",
        "t"
      ],
      [
        "en",
        "t"
      ],
      [
        "++",
        ")"
      ],
      [
        "end",
        "l"
      ],
      [
        "cl",
        "u"
      ],
      [
        "si",
        "ve"
      ],
      [
        "clu",
        "sive"
      ],
      [
        "se",
        "t"
      ],
      [
        "in",
        "g"
      ],
      [
        "m",
        "ent"
      ],
      [
        "st",
        "r"
      ],
      [
        "d",
        "e"
      ],
      [
        "w",
        "i"
      ],
      [
        "ar",
        "r"
      ],
      [
        "wi",
        "th"
      ],
      [
        "]",
        "["
      ],
      [
        "n",
        "t"
      ],
      [
        "c",
        "re"
      ],
      [
        ")",
        ";"
      ],
      [
        "cre",
        "ment"
      ],
      [
        "e",
        "x"
      ],
      [
        "]",
        ";"
      ],
      [
        "c",
        "h"
      ],
      [
        "s",
        "um"
      ],
      [
        "ma",
        "in"
      ],
      [
        "u",
        "e"
      ],
      [
        "ex",
        "clusive"
      ],
      [
        "n",
        "e"
      ],
      [
        "ne",
        "w"
      ],
      [
        "h",
        "i"
      ],
      [
        "z",
        "e"
      ],
      [
        "in",
        "crement"
      ],
      [
        "si",
        "ze"
      ],
      [
        "str",
        "ing"
      ],
      [
        "l",
        "o"
      ],
      [
        "w",
        "hi"
      ],
      [
        "in",
        "e"
      ],
      [
        "-",
        "-"
      ],
      [
        "whi",
        "le"
      ],
      [
        "q",
        "u"
      ],
      [
        "ma",
        "x"
      ],
      [
        "qu",
        "al"
      ],
      [
        "e",
        "qual"
      ],
      [
        "l",
        "ine"
      ],
      [
        "th",
        "e"
      ],
      [
        "a",
        "re"
      ],
      [
        "m",
        "p"
      ],
      [
        "1",
        "0"
      ],
      [
        "th",
        "an"
      ],
      [
        "<",
        "="
      ],
      [
        "b",
        "y"
      ],
      [
        "t",
        "er"
      ],
      [
        "++",
        ";"
      ],
      [
        "de",
        "cl"
      ],
      [
        "decl",
        "are"
      ],
      [
        "a",
        "y"
      ],
      [
        "t",
        "e"
      ],
      [
        "m",
        "in"
      ],
      [
        "r",
        "o"
      ],
      [
        "c",
        "on"
      ],
      [
        "l",
        "en"
      ],
      [
        "integer",
        "s"
      ],
      [
        "c",
        "nt"
      ],
      [
        "v",
        "al"
      ],
      [
        "o",
        "l"
      ],
      [
        "arr",
        "ay"
      ],
      [
        "p",
        "u"
      ],
      [
        "a",
        "b"
      ],
      [
        "1",
        "00"
      ],
      [
        "+",
        "="
      ],
      [
        "ro",
        "m"
      ],
      [
        "b",
        "e"
      ],
      [
        "f",
        "rom"
      ],
      [
        "re",
        "s"
      ],
      [
        "t",
        "i"
      ],
      [
        "val",
        "ue"
      ],
      [
        "l",
        "a"
      ],
      [
        "t",
        "r"
      ],
      [
        "ch",
        "ar"
      ],
      [
        "&",
        "&"
      ],
      [
        ".",
        "."
      ],
      [
        "n",
        "um"
      ],
      [
        "]",
        ")"
      ],
      [
        "o",
        "p"
      ],
      [
        "m",
        "o"
      ],
      [
        "s",
        "s"
      ],
      [
        "new",
        "line"
      ],
      [
        "cou",
        "nt"
      ],
      [
        "\"",
        ";"
      ],
      [
        "n",
        "o"
      ],
      [
        "a",
        "s"
      ],
      [
        "a",
        "c"
      ],
      [
        "in",
        "clusive"
      ],
      [
        "m",
        "e"
      ],
      [
        "pu",
        "t"
      ],
      [
        "f",
        "la"
      ],
      [
        "lo",
        "op"
      ],
      [
        "#",
        "."
      ],
      [
        "fla",
        "g"
      ],
      [
        "g",
        "rea"
      ],
      [
        "grea",
        "ter"
      ],
      [
        "tr",
        "ue"
      ],
      [
        "rea",
        "k"
      ],
      [
        "b",
        "reak"
      ],
      [
        "u",
        "n"
      ],
      [
        "g",
        "e"
      ],
      [
        "len",
        "g"
      ],
      [
        "leng",
        "th"
      ],
      [
        "]",
        ","
      ],
      [
        "mo",
        "d"
      ],
      [
        "'",
        ")"
      ],
      [
        "te",
        "mp"
      ],
      [
        "le",
        "ss"
      ],
      [
        "!",
        "="
      ],
      [
        "con",
        "st"
      ],
      [
        "N",
        "O"
      ],
      [
        "#.",
        "#."
      ],
      [
        "b",
        "o"
      ],
      [
        "f",
        "a"
      ],
      [
        "s",
        "1"
      ],
      [
        "ti",
        "on"
      ],
      [
        "no",
        "t"
      ],
      [
        "()",
        ";"
      ],
      [
        "E",
        "S"
      ],
      [
        "i",
        "d"
      ],
      [
        "Y",
        "ES"
      ],
      [
        "i",
        "t"
      ],
      [
        "p",
        "o"
      ],
      [
        "ve",
        "c"
      ],
      [
        "ab",
        "s"
      ],
      [
        "a",
        "t"
      ],
      [
        "to",
        "r"
      ],
      [
        "c",
        "rea"
      ],
      [
        "a",
        "d"
      ],
      [
        "--",
        "--"
      ],
      [
        "de",
        "crement"
      ],
      [
        "s",
        "2"
      ],
      [
        ">",
        "="
      ],
      [
        "crea",
        "se"
      ],
      [
        "th",
        "en"
      ],
      [
        "in",
        "put"
      ],
      [
        "00",
        "00"
      ],
      [
        "ab",
        "le"
      ],
      [
        "fa",
        "lse"
      ],
      [
        "f",
        "un"
      ],
      [
        "s",
        "h"
      ],
      [
        "v",
        "ar"
      ],
      [
        "c",
        "tion"
      ],
      [
        "e",
        "le"
      ],
      [
        "si",
        "g"
      ],
      [
        "fun",
        "ction"
      ],
      [
        "var",
        "i"
      ],
      [
        "vari",
        "able"
      ],
      [
        "..",
        ".."
      ],
      [
        "vec",
        "tor"
      ],
      [
        "d",
        "o"
      ],
      [
        "(",
        "("
      ],
      [
        "ele",
        "ment"
      ],
      [
        "'",
        ";"
      ],
      [
        ")",
        ")"
      ],
      [
        "u",
        "l"
      ],
      [
        "s",
        "or"
      ],
      [
        "ar",
        "g"
      ],
      [
        "sig",
        "n"
      ],
      [
        "d",
        "p"
      ],
      [
        "i",
        "r"
      ],
      [
        "lo",
        "w"
      ],
      [
        "\"",
        "\\"
      ],
      [
        "an",
        "ge"
      ],
      [
        "in",
        "crease"
      ],
      [
        "um",
        "ent"
      ],
      [
        "arg",
        "ument"
      ],
      [
        "ad",
        "d"
      ],
      [
        "|",
        "|"
      ],
      [
        "as",
        "sign"
      ],
      [
        "a",
        "p"
      ],
      [
        "ch",
        "ange"
      ],
      [
        "sor",
        "t"
      ],
      [
        "bo",
        "ol"
      ],
      [
        "1",
        "e"
      ],
      [
        "ac",
        "ter"
      ],
      [
        "c",
        "k"
      ],
      [
        "char",
        "acter"
      ],
      [
        "t",
        "mp"
      ],
      [
        "mod",
        "u"
      ],
      [
        "modu",
        "lo"
      ],
      [
        "3",
        "f"
      ],
      [
        "x",
        "1"
      ],
      [
        "c",
        "d"
      ],
      [
        "pu",
        "sh"
      ],
      [
        "c",
        "o"
      ],
      [
        "c",
        "e"
      ],
      [
        "con",
        "t"
      ],
      [
        "ul",
        "t"
      ],
      [
        "9",
        "9"
      ],
      [
        "ou",
        "t"
      ],
      [
        "g",
        "cd"
      ],
      [
        "'",
        "\\"
      ],
      [
        "k",
        "e"
      ],
      [
        "c",
        "ur"
      ],
      [
        "c",
        "al"
      ],
      [
        "max",
        "n"
      ],
      [
        "i",
        "m"
      ],
      [
        "on",
        "e"
      ],
      [
        "I",
        "N"
      ],
      [
        "m",
        "x"
      ],
      [
        "--",
        ";"
      ],
      [
        "res",
        "ult"
      ],
      [
        "--",
        ")"
      ],
      [
        "i",
        "me"
      ],
      [
        "f",
        "ol"
      ],
      [
        "fol",
        "low"
      ],
      [
        "ac",
        "k"
      ],
      [
        "follow",
        "ing"
      ],
      [
        "e",
        "d"
      ],
      [
        "to",
        "t"
      ],
      [
        "ir",
        "st"
      ],
      [
        "ge",
        "t"
      ],
      [
        "\"",
        ","
      ],
      [
        "x",
        "2"
      ],
      [
        "t",
        "a"
      ],
      [
        "100",
        "00"
      ],
      [
        "an",
        "t"
      ],
      [
        "se",
        "r"
      ],
      [
        "v",
        "o"
      ],
      [
        "s",
        "u"
      ],
      [
        "st",
        "ar"
      ],
      [
        "b",
        "ack"
      ],
      [
        "t",
        "1"
      ],
      [
        "M",
        "A"
      ],
      [
        "#.#.",
        "#.#."
      ],
      [
        "v",
        "is"
      ],
      [
        "MA",
        "X"
      ],
      [
        "d",
        "i"
      ],
      [
        "po",
        "s"
      ],
      [
        "3f",
        "3f"
      ],
      [
        "f",
        "irst"
      ],
      [
        "star",
        "t"
      ],
      [
        "]",
        ");"
      ],
      [
        "ch",
        "e"
      ],
      [
        "----",
        "----"
      ],
      [
        "-",
        "="
      ],
      [
        "element",
        "s"
      ],
      [
        "b",
        "eg"
      ],
      [
        "beg",
        "in"
      ],
      [
        "m",
        "n"
      ],
      [
        "const",
        "ant"
      ],
      [
        "int",
        "s"
      ],
      [
        "c",
        "1"
      ],
      [
        "argument",
        "s"
      ],
      [
        "int",
        "o"
      ],
      [
        "ma",
        "p"
      ],
      [
        "100",
        "0"
      ],
      [
        "out",
        "put"
      ],
      [
        "in",
        "d"
      ],
      [
        "con",
        "d"
      ],
      [
        "ar",
        "d"
      ],
      [
        "im",
        "um"
      ],
      [
        "y",
        "1"
      ],
      [
        "vo",
        "id"
      ],
      [
        "p",
        "re"
      ],
      [
        "a",
        "me"
      ],
      [
        "_",
        "back"
      ],
      [
        "t",
        "2"
      ],
      [
        "push",
        "_back"
      ],
      [
        "]",
        "]"
      ],
      [
        "'",
        ","
      ],
      [
        "100",
        "0000"
      ],
      [
        "in",
        "ue"
      ],
      [
        "O",
        "O"
      ],
      [
        "cont",
        "inue"
      ],
      [
        "bo",
        "o"
      ],
      [
        "y",
        "2"
      ],
      [
        ")",
        ","
      ],
      [
        "pr",
        "ime"
      ],
      [
        "....",
        "...."
      ],
      [
        "g",
        "h"
      ],
      [
        "m",
        "id"
      ],
      [
        "che",
        "ck"
      ],
      [
        "increment",
        "ing"
      ],
      [
        "i",
        "l"
      ],
      [
        "r",
        "i"
      ],
      [
        "in",
        "de"
      ],
      [
        "su",
        "b"
      ],
      [
        "se",
        "cond"
      ],
      [
        "10",
        "5"
      ],
      [
        ")",
        ");"
      ],
      [
        "b",
        "le"
      ],
      [
        "in",
        "ser"
      ],
      [
        "c",
        "2"
      ],
      [
        "\"",
        ")"
      ],
      [
        "inser",
        "t"
      ],
      [
        "string",
        "s"
      ],
      [
        "2",
        "0"
      ],
      [
        "1e",
        "9"
      ],
      [
        "inde",
        "x"
      ],
      [
        "no",
        "w"
      ],
      [
        "()",
        ","
      ],
      [
        "]",
        "."
      ],
      [
        "to",
        "p"
      ],
      [
        "d",
        "is"
      ],
      [
        "v",
        "1"
      ],
      [
        "boo",
        "le"
      ],
      [
        "equal",
        "s"
      ],
      [
        "tot",
        "al"
      ],
      [
        "return",
        "ing"
      ],
      [
        "n",
        "ame"
      ],
      [
        "d",
        "ou"
      ],
      [
        "dou",
        "ble"
      ],
      [
        "sum",
        "1"
      ],
      [
        "ti",
        "me"
      ],
      [
        "(",
        "!"
      ],
      [
        "s",
        "ol"
      ],
      [
        "r",
        "un"
      ],
      [
        "d",
        "if"
      ],
      [
        "i",
        "ter"
      ],
      [
        "long",
        "s"
      ],
      [
        "ma",
        "ke"
      ],
      [
        "boole",
        "an"
      ],
      [
        "value",
        "s"
      ],
      [
        ".",
        "|"
      ],
      [
        "v",
        "en"
      ],
      [
        "u",
        "te"
      ],
      [
        "th",
        "er"
      ],
      [
        "e",
        "s"
      ],
      [
        "o",
        "k"
      ],
      [
        "}",
        ";"
      ],
      [
        "c",
        "a"
      ],
      [
        "\"",
        "|"
      ],
      [
        "1000000",
        "00"
      ],
      [
        "]",
        "++;"
      ],
      [
        "p",
        "1"
      ],
      [
        "variable",
        "s"
      ],
      [
        "c",
        "ol"
      ],
      [
        "abs",
        "ol"
      ],
      [
        "le",
        "d"
      ],
      [
        "absol",
        "ute"
      ],
      [
        "1",
        "1"
      ],
      [
        "p",
        "a"
      ],
      [
        "st",
        "and"
      ],
      [
        "stand",
        "ard"
      ],
      [
        "w",
        "er"
      ],
      [
        "c",
        "t"
      ],
      [
        "sum",
        "2"
      ],
      [
        "la",
        "st"
      ],
      [
        "a",
        "1"
      ],
      [
        "cal",
        "l"
      ],
      [
        "b",
        "er"
      ],
      [
        "p",
        "l"
      ],
      [
        "6",
        "0"
      ],
      [
        "M",
        "O"
      ],
      [
        "MO",
        "D"
      ],
      [
        "IN",
        "F"
      ],
      [
        "iter",
        "a"
      ],
      [
        "sol",
        "ve"
      ],
      [
        "n",
        "1"
      ],
      [
        "wi",
        "se"
      ],
      [
        "size",
        "of"
      ],
      [
        "de",
        "crease"
      ],
      [
        "s",
        "w"
      ],
      [
        "ro",
        "w"
      ],
      [
        "1",
        "2"
      ],
      [
        "mo",
        "ve"
      ],
      [
        "dif",
        "f"
      ],
      [
        "2",
        "6"
      ],
      [
        "o",
        "d"
      ],
      [
        "10",
        "1"
      ],
      [
        "max",
        "x"
      ],
      [
        "th",
        "at"
      ],
      [
        "h",
        "a"
      ],
      [
        "/",
        "="
      ],
      [
        "2",
        "00"
      ],
      [
        "u",
        "p"
      ],
      [
        "f",
        "ind"
      ],
      [
        "e",
        "ven"
      ],
      [
        "e",
        "p"
      ],
      [
        "5",
        "0"
      ],
      [
        "sw",
        "ap"
      ],
      [
        "v",
        "i"
      ],
      [
        "'",
        "]"
      ],
      [
        "gh",
        "t"
      ],
      [
        "n",
        "2"
      ],
      [
        "u",
        "s"
      ],
      [
        "()",
        ");"
      ],
      [
        "t",
        "y"
      ],
      [
        "p",
        "2"
      ],
      [
        "a",
        "se"
      ],
      [
        "cal",
        "led"
      ],
      [
        "s",
        "p"
      ],
      [
        "p",
        "end"
      ],
      [
        "min",
        "imum"
      ],
      [
        "in",
        "f"
      ],
      [
        "e",
        "re"
      ],
      [
        "b",
        "it"
      ],
      [
        "de",
        "f"
      ],
      [
        "me",
        "m"
      ],
      [
        "f",
        "t"
      ],
      [
        "max",
        "imum"
      ],
      [
        "99",
        "99"
      ],
      [
        "i",
        "ce"
      ],
      [
        "num",
        "ber"
      ],
      [
        "()",
        ")"
      ],
      [
        "count",
        "er"
      ],
      [
        "v",
        "er"
      ],
      [
        "IN",
        "T"
      ],
      [
        "mem",
        "set"
      ],
      [
        "ap",
        "pend"
      ],
      [
        "def",
        "ine"
      ],
      [
        "or",
        "d"
      ],
      [
        "10000",
        "0"
      ],
      [
        "3",
        "0"
      ],
      [
        "m",
        "y"
      ],
      [
        "i",
        "te"
      ],
      [
        "(",
        "\""
      ],
      [
        "t",
        "w"
      ],
      [
        "a",
        "2"
      ],
      [
        "array",
        "s"
      ],
      [
        "1",
        "5"
      ],
      [
        "g",
        "o"
      ],
      [
        "al",
        "l"
      ],
      [
        "\"",
        "#"
      ],
      [
        "le",
        "ft"
      ],
      [
        "--------",
        "--------"
      ],
      [
        "ans",
        "1"
      ],
      [
        "L",
        "L"
      ],
      [
        "2",
        "d"
      ],
      [
        "f",
        "s"
      ],
      [
        "n",
        "d"
      ],
      [
        "100000000",
        "7"
      ],
      [
        "return",
        "s"
      ],
      [
        "s",
        "top"
      ],
      [
        "x",
        "x"
      ],
      [
        "v",
        "0"
      ],
      [
        "e",
        "l"
      ],
      [
        "s",
        "3"
      ],
      [
        "min",
        "n"
      ],
      [
        "\"",
        ");"
      ],
      [
        "0",
        "x"
      ],
      [
        "[",
        "'"
      ],
      [
        "m",
        "ar"
      ],
      [
        "u",
        "ser"
      ],
      [
        "ans",
        "2"
      ],
      [
        "|",
        ".|"
      ],
      [
        "max",
        "i"
      ],
      [
        "MAX",
        "N"
      ],
      [
        "ri",
        "ght"
      ],
      [
        "co",
        "st"
      ],
      [
        "m",
        "i"
      ],
      [
        "get",
        "char"
      ],
      [
        "o",
        "s"
      ],
      [
        "o",
        "ther"
      ],
      [
        "3f3f",
        "3f3f"
      ],
      [
        "od",
        "d"
      ],
      [
        "mar",
        "k"
      ],
      [
        "int",
        "er"
      ],
      [
        "ex",
        "t"
      ],
      [
        "f",
        "f"
      ],
      [
        "L",
        "E"
      ],
      [
        "character",
        "s"
      ],
      [
        "M",
        "a"
      ],
      [
        "v",
        "2"
      ],
      [
        "w",
        "in"
      ],
      [
        "1",
        "10"
      ],
      [
        "100",
        "5"
      ],
      [
        "d",
        "fs"
      ],
      [
        "ac",
        "t"
      ],
      [
        "pa",
        "ir"
      ],
      [
        "pre",
        "v"
      ],
      [
        "a",
        "u"
      ],
      [
        "st",
        "ep"
      ],
      [
        "dis",
        "t"
      ],
      [
        "\"",
        "-"
      ],
      [
        "e",
        "a"
      ],
      [
        "other",
        "wise"
      ],
      [
        "d",
        "ay"
      ],
      [
        "min",
        "i"
      ],
      [
        "decrement",
        "ing"
      ],
      [
        "0x",
        "3f3f3f3f"
      ],
      [
        "ta",
        "k"
      ],
      [
        "INT",
        "_"
      ],
      [
        "m",
        "ul"
      ],
      [
        "b",
        "1"
      ],
      [
        "e",
        "mp"
      ],
      [
        ".",
        "#.#.#.#."
      ],
      [
        "di",
        "vi"
      ],
      [
        "r",
        "on"
      ],
      [
        "p",
        "er"
      ],
      [
        "1",
        "8"
      ],
      [
        "divi",
        "de"
      ],
      [
        "n",
        "ext"
      ],
      [
        "3",
        "1"
      ],
      [
        "1e",
        "5"
      ],
      [
        "ans",
        "wer"
      ],
      [
        "Y",
        "es"
      ],
      [
        "q",
        "ue"
      ],
      [
        "max",
        "_"
      ],
      [
        "time",
        "s"
      ],
      [
        "f",
        "i"
      ],
      [
        "o",
        "w"
      ],
      [
        "te",
        "s"
      ],
      [
        "ar",
        "a"
      ],
      [
        "tak",
        "ing"
      ],
      [
        "str",
        "len"
      ],
      [
        "ne",
        "d"
      ],
      [
        "d",
        "at"
      ],
      [
        "m",
        "m"
      ],
      [
        "'",
        "."
      ],
      [
        "ou",
        "nt"
      ],
      [
        "2",
        "0000"
      ],
      [
        "'",
        "#"
      ],
      [
        "10000",
        "5"
      ],
      [
        "sub",
        "tr"
      ],
      [
        "put",
        "s"
      ],
      [
        "sig",
        "ned"
      ],
      [
        "ac",
        "e"
      ],
      [
        "itera",
        "tion"
      ],
      [
        "in",
        "i"
      ],
      [
        "low",
        "er"
      ],
      [
        "w",
        "ord"
      ],
      [
        "po",
        "w"
      ],
      [
        "d",
        "1"
      ],
      [
        "N",
        "o"
      ],
      [
        "min",
        "_"
      ],
      [
        "po",
        "si"
      ],
      [
        "id",
        "x"
      ],
      [
        "*",
        "="
      ],
      [
        "6",
        "4"
      ],
      [
        "di",
        "g"
      ],
      [
        "a",
        "a"
      ],
      [
        "a",
        "m"
      ],
      [
        "po",
        "inter"
      ],
      [
        "c",
        "is"
      ],
      [
        "te",
        "st"
      ],
      [
        "i",
        "ze"
      ],
      [
        "p",
        "e"
      ],
      [
        "INT_",
        "MAX"
      ],
      [
        "'",
        "*"
      ],
      [
        ")",
        "\""
      ],
      [
        "a",
        "te"
      ],
      [
        "ou",
        "nd"
      ],
      [
        "ta",
        "ke"
      ],
      [
        "i",
        "i"
      ],
      [
        "c",
        "c"
      ],
      [
        "ea",
        "ch"
      ],
      [
        "_",
        "t"
      ],
      [
        "c",
        "le"
      ],
      [
        "t",
        "t"
      ],
      [
        "ma",
        "t"
      ],
      [
        "n",
        "p"
      ],
      [
        "cnt",
        "1"
      ],
      [
        "max",
        "1"
      ],
      [
        "emp",
        "ty"
      ],
      [
        "Ma",
        "x"
      ],
      [
        "re",
        "move"
      ],
      [
        "l",
        "l"
      ],
      [
        "S",
        "e"
      ],
      [
        "au",
        "x"
      ],
      [
        "\"",
        "+"
      ],
      [
        "d",
        "y"
      ],
      [
        "mul",
        "ti"
      ],
      [
        "f",
        "1"
      ],
      [
        "q",
        "r"
      ],
      [
        "'",
        "-"
      ],
      [
        "R",
        "I"
      ],
      [
        "k",
        "1"
      ],
      [
        "in",
        "line"
      ],
      [
        "])",
        ")"
      ],
      [
        "subtr",
        "act"
      ],
      [
        "cur",
        "r"
      ],
      [
        "sub",
        "str"
      ],
      [
        "d",
        "2"
      ],
      [
        "r",
        "r"
      ],
      [
        "re",
        "m"
      ],
      [
        "n",
        "l"
      ],
      [
        "un",
        "signed"
      ],
      [
        "s",
        "a"
      ],
      [
        "er",
        "o"
      ],
      [
        "er",
        "ase"
      ],
      [
        "ca",
        "st"
      ],
      [
        "re",
        "st"
      ],
      [
        "pr",
        "o"
      ],
      [
        "ex",
        "it"
      ],
      [
        "get",
        "line"
      ],
      [
        "tw",
        "o"
      ],
      [
        "N",
        "um"
      ],
      [
        "y",
        "a"
      ],
      [
        "num",
        "1"
      ],
      [
        "b",
        "ase"
      ],
      [
        "t",
        "s"
      ],
      [
        "b",
        "i"
      ],
      [
        "pr",
        "ice"
      ],
      [
        "ri",
        "end"
      ],
      [
        "ini",
        "ti"
      ],
      [
        "100",
        "1"
      ],
      [
        "u",
        "d"
      ],
      [
        "initi",
        "al"
      ],
      [
        "k",
        "a"
      ],
      [
        "str",
        "1"
      ],
      [
        "ver",
        "se"
      ],
      [
        "riend",
        "s"
      ],
      [
        "d",
        "x"
      ],
      [
        "w",
        "n"
      ],
      [
        "diff",
        "ere"
      ],
      [
        "z",
        "ero"
      ],
      [
        "str",
        "2"
      ],
      [
        "%",
        "="
      ],
      [
        "5",
        "5"
      ],
      [
        "C",
        "ount"
      ],
      [
        "g",
        "r"
      ],
      [
        "p",
        "s"
      ],
      [
        "w",
        "h"
      ],
      [
        "pl",
        "ay"
      ],
      [
        "T",
        "ime"
      ],
      [
        "A",
        "n"
      ],
      [
        "re",
        "nt"
      ],
      [
        "cnt",
        "2"
      ],
      [
        "cur",
        "rent"
      ],
      [
        "2",
        "4"
      ],
      [
        "take",
        "s"
      ],
      [
        "l",
        "1"
      ],
      [
        "#.",
        "|.|"
      ],
      [
        "move",
        "s"
      ],
      [
        "bit",
        "wise"
      ],
      [
        "p",
        "3"
      ],
      [
        "dig",
        "it"
      ],
      [
        "m",
        "s"
      ],
      [
        "--------",
        "+"
      ],
      [
        "----------------",
        "--------+"
      ],
      [
        "cle",
        "ar"
      ],
      [
        "\"+",
        "------------------------+"
      ],
      [
        "re",
        "verse"
      ],
      [
        "num",
        "2"
      ],
      [
        "flag",
        "1"
      ],
      [
        "do",
        "wn"
      ],
      [
        "\"",
        "*"
      ],
      [
        "f",
        "2"
      ],
      [
        "tr",
        "u"
      ],
      [
        "initial",
        "ize"
      ],
      [
        "tru",
        "th"
      ],
      [
        "4",
        "8"
      ],
      [
        "....",
        ".."
      ],
      [
        "........",
        "......"
      ],
      [
        "co",
        "mp"
      ],
      [
        "\"",
        "."
      ],
      [
        "F",
        "riends"
      ],
      [
        "I",
        "n"
      ],
      [
        "c",
        "mp"
      ],
      [
        "hi",
        "p"
      ],
      [
        "........",
        ".............."
      ],
      [
        "Friends",
        "hip"
      ],
      [
        "f",
        "in"
      ],
      [
        "let",
        "ter"
      ],
      [
        "2",
        "e"
      ],
      [
        "an",
        "g"
      ],
      [
        "truth",
        "y"
      ],
      [
        "......................",
        ".|"
      ],
      [
        "l",
        "2"
      ],
      [
        "posi",
        "tion"
      ],
      [
        "l",
        "i"
      ],
      [
        "[",
        "\""
      ],
      [
        "h",
        "ed"
      ],
      [
        "m",
        "an"
      ],
      [
        "s",
        "co"
      ],
      [
        "b",
        "2"
      ],
      [
        "k",
        "2"
      ],
      [
        "s",
        "y"
      ],
      [
        "e",
        "en"
      ],
      [
        "be",
        "tw"
      ],
      [
        "it",
        "y"
      ],
      [
        "'-",
        "')"
      ],
      [
        "differe",
        "nt"
      ],
      [
        "betw",
        "een"
      ],
      [
        "f",
        "re"
      ],
      [
        "hed",
        "ron"
      ],
      [
        "5",
        "00"
      ],
      [
        "a",
        "3"
      ],
      [
        "3",
        "5"
      ],
      [
        "1",
        "LL"
      ],
      [
        "I",
        "M"
      ],
      [
        "_",
        "gcd"
      ],
      [
        "bo",
        "th"
      ],
      [
        "\"*",
        "\";"
      ],
      [
        "2",
        "2"
      ],
      [
        "read",
        "ing"
      ],
      [
        "m",
        "1"
      ],
      [
        "is",
        "t"
      ],
      [
        "is",
        "h"
      ],
      [
        "sco",
        "re"
      ],
      [
        "s",
        "to"
      ],
      [
        "cast",
        "ed"
      ],
      [
        "c",
        "an"
      ],
      [
        "or",
        "re"
      ],
      [
        "\"+------------------------+",
        "\""
      ],
      [
        "(",
        "'"
      ],
      [
        "p",
        "q"
      ],
      [
        "ro",
        "ck"
      ],
      [
        "f",
        "il"
      ],
      [
        "wh",
        "ere"
      ],
      [
        "i",
        "c"
      ],
      [
        "sp",
        "ace"
      ],
      [
        "\"",
        "]"
      ],
      [
        "S",
        "E"
      ],
      [
        "by",
        "tes"
      ],
      [
        "itera",
        "tor"
      ],
      [
        "up",
        "per"
      ],
      [
        "orre",
        "ct"
      ],
      [
        "2",
        "5"
      ],
      [
        "[",
        "]"
      ],
      [
        "k",
        "ol"
      ],
      [
        "P",
        "r"
      ],
      [
        "h",
        "as"
      ],
      [
        "s",
        "cis"
      ],
      [
        "sor",
        "s"
      ],
      [
        "scis",
        "sors"
      ],
      [
        "++",
        ","
      ],
      [
        "count",
        "1"
      ],
      [
        "temp",
        "1"
      ],
      [
        "p",
        "le"
      ],
      [
        "p",
        "ap"
      ],
      [
        "pap",
        "er"
      ],
      [
        "'",
        ");"
      ],
      [
        "p",
        "op"
      ],
      [
        "ve",
        "l"
      ],
      [
        "col",
        "or"
      ],
      [
        "initialize",
        "d"
      ],
      [
        "C",
        "h"
      ],
      [
        "po",
        "wer"
      ],
      [
        "ce",
        "il"
      ],
      [
        "3",
        "60"
      ],
      [
        "f",
        "l"
      ],
      [
        "t",
        "x"
      ],
      [
        "temp",
        "2"
      ],
      [
        "fa",
        "ther"
      ],
      [
        "N",
        "G"
      ],
      [
        "b",
        "a"
      ],
      [
        "o",
        "y"
      ],
      [
        "m",
        "2"
      ],
      [
        "fa",
        "st"
      ],
      [
        "c",
        "m"
      ],
      [
        "'",
        "+"
      ],
      [
        "r",
        "1"
      ],
      [
        "Pr",
        "ime"
      ],
      [
        "t",
        "b"
      ],
      [
        "\"",
        "\";"
      ],
      [
        "f",
        "b"
      ],
      [
        "\"#",
        "\";"
      ],
      [
        "n",
        "ing"
      ],
      [
        "min",
        "1"
      ],
      [
        "begin",
        "ning"
      ],
      [
        "r",
        "a"
      ],
      [
        "flag",
        "2"
      ],
      [
        "E",
        "N"
      ],
      [
        "G",
        "M"
      ],
      [
        "r",
        "2"
      ],
      [
        "rea",
        "m"
      ],
      [
        "18",
        "0"
      ],
      [
        "SE",
        "GM"
      ],
      [
        "EN",
        "T"
      ],
      [
        "SEGM",
        "ENT"
      ],
      [
        "3",
        "2"
      ],
      [
        "h",
        "1"
      ],
      [
        "_",
        "b"
      ],
      [
        "s",
        "x"
      ],
      [
        "c",
        "ap"
      ],
      [
        "o",
        "t"
      ],
      [
        "di",
        "v"
      ],
      [
        "sh",
        "if"
      ],
      [
        ":",
        ":"
      ],
      [
        "x",
        "3"
      ],
      [
        "\"#",
        "\""
      ],
      [
        "f",
        "ound"
      ],
      [
        "s",
        "qr"
      ],
      [
        "z",
        "z"
      ],
      [
        "OO",
        "OO"
      ],
      [
        "dat",
        "a"
      ],
      [
        ")",
        "]"
      ],
      [
        "M",
        "in"
      ],
      [
        "_",
        "_gcd"
      ],
      [
        "s",
        "k"
      ],
      [
        "re",
        "d"
      ],
      [
        "ed",
        "ge"
      ],
      [
        "sub",
        "string"
      ],
      [
        "b",
        "b"
      ],
      [
        "p",
        "i"
      ],
      [
        "arr",
        "2"
      ],
      [
        "ad",
        "j"
      ],
      [
        "che",
        "st"
      ],
      [
        "e",
        "t"
      ],
      [
        "10000",
        "1"
      ],
      [
        "st",
        "ream"
      ],
      [
        "qu",
        "are"
      ],
      [
        "9",
        "7"
      ],
      [
        "'+",
        "')"
      ],
      [
        "y",
        "y"
      ],
      [
        "bo",
        "ard"
      ],
      [
        "#.#.#.#.",
        "#.#."
      ],
      [
        "'*",
        "')"
      ],
      [
        "hi",
        "gh"
      ],
      [
        "Se",
        "cond"
      ],
      [
        "P",
        "I"
      ],
      [
        "s",
        "quare"
      ],
      [
        "}",
        ","
      ],
      [
        "sqr",
        "t"
      ],
      [
        "F",
        "irst"
      ],
      [
        "i",
        "k"
      ],
      [
        "in",
        "p"
      ],
      [
        "ac",
        "os"
      ],
      [
        "ce",
        "k"
      ],
      [
        "be",
        "st"
      ],
      [
        "C",
        "ol"
      ],
      [
        "ite",
        "d"
      ],
      [
        "que",
        "ue"
      ],
      [
        "shif",
        "t"
      ],
      [
        "a",
        "j"
      ],
      [
        "c",
        "i"
      ],
      [
        "whi",
        "ch"
      ],
      [
        "f",
        "lo"
      ],
      [
        "er",
        "s"
      ],
      [
        "prime",
        "s"
      ],
      [
        "2",
        "50"
      ],
      [
        "10",
        "10"
      ],
      [
        "b",
        "l"
      ],
      [
        "fi",
        "x"
      ],
      [
        "O",
        "W"
      ],
      [
        "h",
        "e"
      ],
      [
        "A",
        "NG"
      ],
      [
        "T",
        "RI"
      ],
      [
        "ma",
        "l"
      ],
      [
        "arr",
        "1"
      ],
      [
        "ANG",
        "LE"
      ],
      [
        "TRI",
        "ANGLE"
      ],
      [
        "b",
        "ice"
      ],
      [
        "bice",
        "ps"
      ],
      [
        "b",
        "u"
      ],
      [
        "c",
        "_"
      ],
      [
        "h",
        "o"
      ],
      [
        "p",
        "ar"
      ],
      [
        "\"",
        "\""
      ],
      [
        "1",
        "4"
      ],
      [
        "b",
        "s"
      ],
      [
        "!",
        "\""
      ],
      [
        "D",
        "OW"
      ],
      [
        "U",
        "P"
      ],
      [
        "re",
        "main"
      ],
      [
        "DOW",
        "N"
      ],
      [
        "j",
        "j"
      ],
      [
        "v",
        "v"
      ],
      [
        "re",
        "e"
      ],
      [
        "_",
        "a"
      ],
      [
        "s",
        "z"
      ],
      [
        "((",
        "("
      ],
      [
        "O",
        "f"
      ],
      [
        "S",
        "I"
      ],
      [
        "|",
        ")\""
      ],
      [
        "ne",
        "ed"
      ],
      [
        "(",
        "-"
      ],
      [
        "M",
        "IN"
      ],
      [
        "]",
        "--;"
      ],
      [
        "c",
        "p"
      ],
      [
        "i",
        "on"
      ],
      [
        "r",
        "at"
      ],
      [
        "is",
        "prime"
      ],
      [
        "de",
        "p"
      ],
      [
        "tr",
        "i"
      ],
      [
        ".......................|",
        "\""
      ],
      [
        "j",
        "um"
      ],
      [
        "se",
        "d"
      ],
      [
        "1e",
        "6"
      ],
      [
        "3",
        "00"
      ],
      [
        "l",
        "s"
      ],
      [
        "le",
        "vel"
      ],
      [
        "is",
        "_"
      ],
      [
        "P",
        "R"
      ],
      [
        "n",
        "n"
      ],
      [
        "OO",
        "O"
      ],
      [
        "dis",
        "play"
      ],
      [
        "j",
        "ud"
      ],
      [
        "pr",
        "i"
      ],
      [
        "pl",
        "us"
      ],
      [
        "Num",
        "ber"
      ],
      [
        "PR",
        "INT"
      ],
      [
        "A",
        "rr"
      ],
      [
        "as",
        "ha"
      ],
      [
        "ke",
        "y"
      ],
      [
        "multi",
        "pl"
      ],
      [
        ")",
        "("
      ],
      [
        "su",
        "ma"
      ],
      [
        "ish",
        "ka"
      ],
      [
        "d",
        "im"
      ],
      [
        "'.",
        "'"
      ],
      [
        "i",
        "2"
      ],
      [
        "k",
        "k"
      ],
      [
        "val",
        "id"
      ],
      [
        "sh",
        "ow"
      ],
      [
        "1",
        "3"
      ],
      [
        "is",
        "Prime"
      ],
      [
        "pa",
        "ss"
      ],
      [
        "i",
        "th"
      ],
      [
        "l",
        "cm"
      ],
      [
        "i",
        "1"
      ],
      [
        "r",
        "is"
      ],
      [
        "s",
        "m"
      ],
      [
        "])",
        ","
      ],
      [
        "ite",
        "m"
      ],
      [
        "++",
        "]"
      ],
      [
        "vis",
        "ited"
      ],
      [
        "f",
        "ron"
      ],
      [
        "jud",
        "ge"
      ],
      [
        "fron",
        "t"
      ],
      [
        "B",
        "LE"
      ],
      [
        "O",
        "S"
      ],
      [
        "P",
        "OS"
      ],
      [
        "IM",
        "POS"
      ],
      [
        "SI",
        "BLE"
      ],
      [
        "IMPOS",
        "SIBLE"
      ],
      [
        "u",
        "1"
      ],
      [
        "u",
        "2"
      ],
      [
        "op",
        "en"
      ],
      [
        "'",
        ":"
      ],
      [
        "L",
        "D"
      ],
      [
        "m",
        "en"
      ],
      [
        "w",
        "o"
      ],
      [
        "ro",
        "ot"
      ],
      [
        "'#",
        "'"
      ],
      [
        "R",
        "e"
      ],
      [
        "h",
        "2"
      ],
      [
        "de",
        "m"
      ],
      [
        "64",
        "_t"
      ],
      [
        "\".",
        "\";"
      ],
      [
        "(",
        ";"
      ],
      [
        "a",
        "i"
      ],
      [
        "int",
        "64_t"
      ],
      [
        "itera",
        "te"
      ],
      [
        "j",
        "oy"
      ],
      [
        "s",
        "b"
      ],
      [
        "D",
        "an"
      ],
      [
        "b",
        "an"
      ],
      [
        "c",
        "r"
      ],
      [
        "g",
        "ap"
      ],
      [
        "in",
        "it"
      ],
      [
        "po",
        "ints"
      ],
      [
        "fre",
        "q"
      ],
      [
        "un",
        "i"
      ],
      [
        "bi",
        "g"
      ],
      [
        "sto",
        "re"
      ],
      [
        "d",
        "ir"
      ],
      [
        "u",
        "ck"
      ],
      [
        "st",
        "ate"
      ],
      [
        "flo",
        "at"
      ],
      [
        "P",
        "os"
      ],
      [
        "u",
        "sed"
      ],
      [
        "tx",
        "t"
      ],
      [
        "c",
        "y"
      ],
      [
        "o",
        "o"
      ],
      [
        "multi",
        "ple"
      ],
      [
        "P",
        "o"
      ],
      [
        "T",
        "E"
      ],
      [
        "fil",
        "led"
      ],
      [
        "'",
        "?"
      ],
      [
        "F",
        "T"
      ],
      [
        "G",
        "H"
      ],
      [
        "t",
        "able"
      ],
      [
        "to",
        "n"
      ],
      [
        "me",
        "d"
      ],
      [
        "ad",
        "a"
      ],
      [
        "ord",
        "er"
      ],
      [
        "LE",
        "FT"
      ],
      [
        "RI",
        "GH"
      ],
      [
        "RIGH",
        "T"
      ],
      [
        "5",
        "1"
      ],
      [
        "C",
        "orrect"
      ],
      [
        "b",
        "3"
      ],
      [
        "p",
        "ts"
      ],
      [
        "|",
        "="
      ],
      [
        "st",
        "d"
      ],
      [
        "size",
        "_t"
      ],
      [
        "P",
        "S"
      ],
      [
        "f",
        "abs"
      ],
      [
        "i",
        "p"
      ],
      [
        "min",
        "x"
      ],
      [
        "dist",
        "an"
      ],
      [
        "gr",
        "id"
      ],
      [
        "count",
        "2"
      ],
      [
        "boo",
        "k"
      ],
      [
        "my",
        "set"
      ],
      [
        "multipl",
        "y"
      ],
      [
        "l",
        "im"
      ],
      [
        "r",
        "s"
      ],
      [
        "w",
        "ay"
      ],
      [
        "al",
        "p"
      ],
      [
        "]]",
        "++;"
      ],
      [
        "200",
        "0"
      ],
      [
        "n",
        "y"
      ],
      [
        "is",
        "n"
      ],
      [
        "he",
        "ad"
      ],
      [
        "h",
        "el"
      ],
      [
        "ac",
        "ce"
      ],
      [
        "9999",
        "9999"
      ],
      [
        "'#",
        "';"
      ],
      [
        ".",
        "\""
      ],
      [
        "re",
        "c"
      ],
      [
        "ue",
        "l"
      ],
      [
        "uni",
        "que"
      ],
      [
        "E",
        "PS"
      ],
      [
        "p",
        "al"
      ],
      [
        "is",
        "ha"
      ],
      [
        "#.",
        "|"
      ],
      [
        "-",
        ">"
      ],
      [
        "-",
        "|"
      ],
      [
        "[",
        "("
      ],
      [
        "d",
        "er"
      ],
      [
        "h",
        "ab"
      ],
      [
        "r",
        "ou"
      ],
      [
        "or",
        "i"
      ],
      [
        "res",
        "1"
      ],
      [
        "as",
        "d"
      ],
      [
        "_",
        "n"
      ],
      [
        "t",
        "c"
      ],
      [
        "cou",
        "n"
      ],
      [
        "lo",
        "l"
      ],
      [
        "tmp",
        "2"
      ],
      [
        "day",
        "s"
      ],
      [
        "20000",
        "5"
      ],
      [
        "f",
        "ur"
      ],
      [
        "row",
        "s"
      ],
      [
        "fur",
        "ther"
      ],
      [
        "A",
        "M"
      ],
      [
        "#.#.#.#.",
        "#.#.#.#.#.#."
      ],
      [
        "mat",
        "ch"
      ],
      [
        "bl",
        "ue"
      ],
      [
        "TE",
        "AM"
      ],
      [
        ">",
        "::"
      ],
      [
        "W",
        "IN"
      ],
      [
        "re",
        "f"
      ],
      [
        "se",
        "c"
      ],
      [
        "te",
        "m"
      ],
      [
        "min",
        "2"
      ],
      [
        "ti",
        "ve"
      ],
      [
        "count",
        "s"
      ],
      [
        "WIN",
        "S"
      ],
      [
        "a",
        "f"
      ],
      [
        "m",
        "on"
      ],
      [
        "n",
        "ce"
      ],
      [
        "s",
        "4"
      ],
      [
        "u",
        "t"
      ],
      [
        "lo",
        "g"
      ],
      [
        "1000",
        "10"
      ],
      [
        "Col",
        "or"
      ],
      [
        "acce",
        "pts"
      ],
      [
        "f",
        "uel"
      ],
      [
        "t",
        "ab"
      ],
      [
        "um",
        "n"
      ],
      [
        "tr",
        "a"
      ],
      [
        "as",
        "ya"
      ],
      [
        "pre",
        "cis"
      ],
      [
        "ca",
        "se"
      ],
      [
        "precis",
        "ion"
      ],
      [
        "e",
        "c"
      ],
      [
        "g",
        "u"
      ],
      [
        "vis",
        "it"
      ],
      [
        "ty",
        "pe"
      ],
      [
        ".",
        "#.#."
      ],
      [
        "4",
        "35"
      ],
      [
        "8",
        "24"
      ],
      [
        "c",
        "3"
      ],
      [
        "h",
        "m"
      ],
      [
        "i",
        "e"
      ],
      [
        "p",
        "p"
      ],
      [
        "{",
        "}"
      ],
      [
        "or",
        "t"
      ],
      [
        "cl",
        "o"
      ],
      [
        "99",
        "824"
      ],
      [
        ".#.#.#.#.",
        "#.#."
      ],
      [
        ".#.#.#.#.",
        "#.#.#.#."
      ],
      [
        "edge",
        "s"
      ],
      [
        "435",
        "3"
      ],
      [
        "99824",
        "4353"
      ],
      [
        "'",
        "("
      ],
      [
        "S",
        "um"
      ],
      [
        "_",
        "x"
      ],
      [
        "c",
        "n"
      ],
      [
        "t",
        "p"
      ],
      [
        "te",
        "d"
      ],
      [
        "res",
        "p"
      ],
      [
        "il",
        "d"
      ],
      [
        "A",
        "k"
      ],
      [
        "h",
        "h"
      ],
      [
        "re",
        "en"
      ],
      [
        "si",
        "on"
      ],
      [
        "ex",
        "p"
      ],
      [
        "po",
        "int"
      ],
      [
        "sh",
        "at"
      ],
      [
        "\".",
        "\""
      ],
      [
        "Ak",
        "shat"
      ],
      [
        "'",
        "('"
      ],
      [
        "ma",
        "g"
      ],
      [
        ";",
        ";"
      ],
      [
        "l",
        "ist"
      ],
      [
        "num",
        "s"
      ],
      [
        "di",
        "vis"
      ],
      [
        "100000000",
        "0"
      ],
      [
        "ou",
        "d"
      ],
      [
        "ch",
        "ild"
      ],
      [
        "num",
        "_"
      ],
      [
        "2e",
        "9"
      ],
      [
        "E",
        "hab"
      ],
      [
        "M",
        "al"
      ],
      [
        "M",
        "ishka"
      ],
      [
        "d",
        "d"
      ],
      [
        "t",
        "ar"
      ],
      [
        "en",
        "sion"
      ],
      [
        "100000000",
        "9"
      ],
      [
        "vi",
        "ka"
      ],
      [
        "bit",
        "shift"
      ],
      [
        "Ma",
        "hm"
      ],
      [
        "'*",
        "';"
      ],
      [
        "Ch",
        "ris"
      ],
      [
        "remain",
        "der"
      ],
      [
        "dim",
        "ension"
      ],
      [
        "wo",
        "man"
      ],
      [
        "Mal",
        "vika"
      ],
      [
        "Mahm",
        "oud"
      ],
      [
        "S",
        "1"
      ],
      [
        "ti",
        "m"
      ],
      [
        "char",
        "s"
      ],
      [
        "get",
        "s"
      ],
      [
        "father",
        "cnt"
      ],
      [
        "mag",
        "ic"
      ],
      [
        "B",
        "W"
      ],
      [
        "^",
        "^"
      ],
      [
        "n",
        "er"
      ],
      [
        "!",
        "^^"
      ],
      [
        "1",
        "20"
      ],
      [
        "2",
        "7"
      ],
      [
        "n",
        "a"
      ],
      [
        "--",
        ","
      ],
      [
        "start",
        "ing"
      ],
      [
        "Po",
        "wer"
      ],
      [
        "e",
        "i"
      ],
      [
        "r",
        "l"
      ],
      [
        "|",
        ")"
      ],
      [
        "st",
        "at"
      ],
      [
        "of",
        "f"
      ],
      [
        "sum",
        "3"
      ],
      [
        "ta",
        "in"
      ],
      [
        "20",
        "1"
      ],
      [
        "ep",
        "s"
      ],
      [
        "cap",
        "tain"
      ],
      [
        "E",
        "R"
      ],
      [
        "L",
        "e"
      ],
      [
        "R",
        "U"
      ],
      [
        "c",
        "orrect"
      ],
      [
        "is",
        "a"
      ],
      [
        "2e",
        "5"
      ],
      [
        "fil",
        "l"
      ],
      [
        "has",
        "h"
      ],
      [
        "c",
        "up"
      ],
      [
        "g",
        "g"
      ],
      [
        "l",
        "ice"
      ],
      [
        "un",
        "g"
      ],
      [
        "20000",
        "0"
      ],
      [
        "sk",
        "ip"
      ],
      [
        "'(",
        "')"
      ],
      [
        "_",
        "y"
      ],
      [
        "m",
        "ult"
      ],
      [
        "{",
        "\""
      ],
      [
        "endl",
        "ine"
      ],
      [
        "min",
        "us"
      ],
      [
        "'.",
        "')"
      ],
      [
        "U",
        "R"
      ],
      [
        "ma",
        "tri"
      ],
      [
        "10",
        "2"
      ],
      [
        "inf",
        "in"
      ],
      [
        "ite",
        "ms"
      ],
      [
        "An",
        "s"
      ],
      [
        "ho",
        "me"
      ],
      [
        "si",
        "e"
      ],
      [
        "lo",
        "ck"
      ],
      [
        "decrement",
        "ed"
      ],
      [
        "1e",
        "18"
      ],
      [
        "col",
        "umn"
      ],
      [
        "ou",
        "l"
      ],
      [
        "ta",
        "te"
      ],
      [
        "100000",
        "5"
      ],
      [
        "'.",
        "';"
      ],
      [
        "\"",
        "?"
      ],
      [
        "I",
        "T"
      ],
      [
        "S",
        "p"
      ],
      [
        "s",
        "_"
      ],
      [
        "co",
        "mm"
      ],
      [
        "us",
        "ing"
      ],
      [
        "L",
        "U"
      ],
      [
        "R",
        "D"
      ],
      [
        "T",
        "1"
      ],
      [
        "g",
        "ame"
      ],
      [
        "g",
        "reen"
      ],
      [
        "n",
        "or"
      ],
      [
        "w",
        "or"
      ],
      [
        "re",
        "g"
      ],
      [
        "po",
        "s1"
      ],
      [
        "200",
        "5"
      ],
      [
        "my",
        "map"
      ],
      [
        "go",
        "od"
      ],
      [
        "An",
        "ton"
      ],
      [
        "a",
        "in"
      ],
      [
        "d",
        "r"
      ],
      [
        "s",
        "ing"
      ],
      [
        "ou",
        "s"
      ],
      [
        ">>",
        "="
      ],
      [
        "si",
        "l"
      ],
      [
        "ma",
        "s"
      ],
      [
        "ha",
        "te"
      ],
      [
        "comp",
        "are"
      ],
      [
        "Dan",
        "ik"
      ],
      [
        "sie",
        "ve"
      ],
      [
        "b",
        "r"
      ],
      [
        "b",
        "rr"
      ],
      [
        "c",
        "s"
      ],
      [
        "c",
        "w"
      ],
      [
        "hi",
        "t"
      ],
      [
        "max",
        "2"
      ],
      [
        "res",
        "s"
      ],
      [
        "as",
        "c"
      ],
      [
        "one",
        "s"
      ],
      [
        "mon",
        "th"
      ],
      [
        "D",
        "o"
      ],
      [
        "]",
        "])"
      ],
      [
        "y",
        "e"
      ],
[...]
